5e8c837528af3556b985536bd4d152ad04ca2ab62a83abcaa952bd6a555afe950000003ff00ffc0000003fe01800
a055cd8c2a14ca32aac5caaaac30a1aac32a56aeea9552cbc55142e5058185520000003ff00ffffe00003fe01810
5555775519561550c15d54e857c968d55ddad0555fa515d74a4d5234ad0db54a0000003ff00ffc0000003fe01820
52a9bc61aafcb953046b35a01a12ca8cb234a3abf14a553550af15dd4b75500c0000003ff00ffc0000003fe01830
beadb0b8a813a6aa5b08e8b5ad2aa740fa78350dad5552085452933555a8bb550000003ff00ffc0000003fe01840
555d6f4015c99d0050a940284b0a2aa9ae02aa38708a80f752ad863d5a417aa50000003ff00ffc0200003fe01850
22d2a22f6d89afe63dfa6b6bcb38a69caa8a6d59a8a6d2ab624d4cd523756f520000003ff00ffc0200003fe01860
54b548152831a452a168a52b19824ab5b2868d1b996a55d55640d03d488553140000003ff00ffc0000003fe01870
8148aaaa84c8b900514b88a940a0caa59210aa7da5cab4ca55294ca85555f2950000003ff00ffc0000003fe01880
00a243554ae60454aa76956aa72806aad2c96aa5aa860e5a8ced0d895455c2b20000003ff00ffffe00003fe01890
b2aaa88a584200a5558b2955489a915414a935514a983128e5345386d7152da50000003ff00ffffe00003fe018a0
94aaaa850414b95d503a8d957ea65252ca56a953c52ab1255aab14f4ca85db460000003ff00ffffe00003fe018b0
a14eada61468c3894aa50c94a851294aed19d4af58a42af52cd2b51bf82b5fde0000003ff00ffffe00003fe018c0
8a956290805664ad55575ad654daa554452b51374295dac4ac54aa2ae5a8e4a20000003ff00ffc0000003fe018d0
5c55a05da452042b5d102a9544eaa91448aa15768ab4d8c2af0af3eb54ad2dd50000003ff00ffc0000003fe018e0
1d2ba2d0528aa05d2bce155295a144a8f2851a86a90ca6ca842e0cc90029c0a50000003ff00ffc0200003fe018f0
da94aaa62d77aa52b452b56ac7a80aa95aa60abcaa9dabd2a9dcabaa952b2ca10000003ff00ffc0000003fe01900
6251b500858d93a846f89a45291aa4d410ba49d890a2b5355b2b5134beb5534b0000003ff00ffc0000003fe01910
ab8ab2aaa2aaaaa84aaaa961a82ad6cccaa525bbab525b68b5e5a4c9154afabd0000003ff00ffc0000003fe01920
4a0bad08a8ee4a292024aad6104a8d4405aad5426a99552e8905736b6a953c330000003ff00ffc0000003fe01930
28aa84102a2f640a80fc1d552a147556f522556acd05546020255491428d61540000003ff00ffc0000003fe01940
9328e84c806091d2944a9a2ac52032abab452ab0f54aab501556a4a95150c4950000003ff00ffc0000003fe01950
551abf7c940eb7555bb365155bfa5ad5292ae05a9aab95a1aba02f02af0ea9000000003ff00ffc0000003fe01960
aaaaaaa2aa93632a555292d544a1255452af494583541698c5554a14d59083550000003ff00ffffe00003fe01970
79a97dc670a754815ae569552a546954654115535422d52d51a955554aa565520000003ff00ffc0000003fe01980
11576f044550dd148545512a57d542a525512b5174aa94ef28ad0cda8a5adc8a0000003ff00ffc0200003fe01990
15abc0954a98c8c47b25a8351bdaab587caab49708b9681d080a224a7c932cb50000003ff00ffc0000003fe019a0
a8aab2a20a8ea8b2c8aab5228fa15bbadb15207f955655c155545cd1554053350000003ff00ffc0000003fe019b0
8aad99f0a852842ad507489554b2a1114a2c5546aa157b1ab45092eb54ab32f50000003ff00ffffe00003fe019c0
916d9f0454699d06b2b15a6a3b99b2adb5aa295110fa90f552ad4cd58ad5574e0000003ff00ffc0200003fe019d0
aaaaa92aaaaf1e2aaa75280abaca854d4414554472b1551fe95553caa81aa81a0000003ff00ffc0000003fe019e0
c1555c28c54058868115452a96d542a935542a975552ac55312a2c160a08e9340000003ff00ffc0000003fe019f0
0eab8c17823ac84b56efb415491a19569ca9d56aca8d533aaad552cf255d2ac60000003ff00ffc0000003fe01a00
aa8742a88b652a8930d68510d95150b1f495291a4556882554a01e555220d3010000003ff00ffc0000003fe01a10
ad14a2268b42942ad14b43ad54ad0a554314b55ca80155119d547bc8d560aa250000003ff00ffc0200003fe01a20
aa534506a493540b511526b519d229527548d5a252850a3d2e96ac36242af7500000003ff00ffc0000003fe01a30
1db76f5579b775e92947515914755511555452943285af45aa3b3bcaac6e2caa0000003ff00ffc0000003fe01a40
551b410732b655532874155216817dab635752b5ed35a75a236a517a460990a90000003ff00ffc0000003fe01a50
88aab2a24abba836aaba71492a3555549b65554f2755549ab515a33a512abf2a0000003ff00ffffe00003fe01a60
83a8b0a09aa8a2472aaaaa35ab3a9bd2baa9b5e8abdb5492ce955ba5f255174b0000003ff00ffc0000003fe01a70
1aaa65925a27050540c89555534f5555e415255b554a156740a05c1aaa8ae3aa0000003ff00ffc0000003fe01a80
44314a905510a58d0002e2d285a2eda1522a5895a5242bca984aac2a34aac6bd0000003ff00ffc0000003fe01a90
93a856a2b22bea25ac85a94be8cf5645b4156f5a4d522c3f55a01c554a076d560000003ff00ffc0000003fe01aa0
aaaa9c942ab26041232c3cd548d515545501d54bdc1550bd95520b54a4aa8b490000003ff00ffffe00003fe01ab0
2d10728a85d2242aa00a40aa812082aa1a4daaada401aad25852aaed1552bca30000003ff00ffffe00003fe01ac0
89510646aa144d4ba56994b555956151655415665549448c57105ba8c9a9913c0000003ff00ffc0000003fe01ad0
42b641080a3e56016bd59b568bce1522ed495a404c14b339916847554a9acd520000003ff00ffc0000003fe01ae0
10aaa1a80aab1200aaaca44aaaaa46aaaae90e6badc29c30556e553516f552150000003ff00ffc0000003fe01af0
a12a9ca894af29a94a9aaad4aa820d68e23852af86b52ac1524aad3574804d5a0000003ff00ffffe00003fe01b00
944a43ac5409bad5055ea85903aad4af02a02a33aa8aa06aa0ab84aa8a004caa0000003ff00ffc0000003fe01b10
1ae189d9a8338774ad84d16a54e754b54c546ab6e546d542446d37d81405daa50000003ff00ffc0000003fe01b20
442665367346435522a4b454884a415774a5169b7a554ca6add6ba6aad2aacb20000003ff00ffc0000003fe01b30
48aa05ac122ee2c5aaf4854acf5c54abf5556b615506aa6542ac04548205df6a0000003ff00ffffe00003fe01b40
00148146355265205596aa550948151454a950406854af26a54a1a6a14a89ea10000003ff00ffffe00003fe01b50
0c0aa69f554add0d5729251553c54a552d54a951512aadae898af61a5aaa7aa10000003ff00ffc0200003fe01b60
0557690015459b00047ac1aa56a682ad6ad4aad5b70a2dc3d296d37cad3525480000003ff00ffc0000003fe01b70
11aba2e61aa9acd32a3b611528214145ab14975155a95537caa552828a97a9ea0000003ff00ffc0000003fe01b80
55946454551b480042d4ba14b26ba54a34ab5aa36aacaaa4b2aaad102adbc5a20000003ff00ffc0000003fe01b90
83a1fe5a295c45a699e554689add56d6dd55654b554b516740a59f0aaa2aeeaa0000003ff00ffffe00003fe01ba0
41468954095555c0a405d08a87caa8aa752adaafeaa46ac0a9572b2a5540aeb10000003ff00ffc0000003fe01bb0
4001ba148339a9e9641a96b306246a98aa16a95fa54a91d354ae53a052452a290000003ff00ffffe00003fe01bc0
5002ad41553ed52892946a0c294aad8ac4ab2c3b4ab89ba4aa4aa0aa946aeaa50000003ff00ffc0000003fe01bd0
c11566b28d395bea539aaaa5abd6ab45254ab51a52ab51bd48b04c16695e8d540000003ff00ffc0200003fe01be0
54af45555230e6116b18a516b3542969552ad69612ada0ad285ae1360a9d95620000003ff00ffc0000003fe01bf0
00000000000000000000000000000000000000000000000000000000000000000000000000000000010000000000
00000000000000000000000000000000000000000000000000000000000000000000000000000000010000000000
00000000000000000000000000000000000000000000000000000000000000000000000000000000010000000000
00000000000000000000000000000000000000000000000000000000000000000000000000000000010000000000
00000000000000000000000000000000000000000000000000000000000000000000000000000000010000000000
00000000000000000000000000000000000000000000000000000000000000000000000000000000010000000000
00000000000000000000000000000000000000000000000000000000000000000000000000000000010000000000
00000000000000000000000000000000000000000000000000000000000000000000000000000000010000000000
00000000000000000000000000000000000000000000000000000000000000000000000000000000010000000000
00000000000000000000000000000000000000000000000000000000000000000000000000000000010000000000
00000000000000000000000000000000000000000000000000000000000000000000000000000000010000000000
00000000000000000000000000000000000000000000000000000000000000000000000000000000010000000000
00000000000000000000000000000000000000000000000000000000000000000000000000000000010000000000
00000000000000000000000000000000000000000000000000000000000000000000000000000000010000000000
00000000000000000000000000000000000000000000000000000000000000000000000000000000010000000000
00000000000000000000000000000000000000000000000000000000000000000000000000000000010000000000
00000000000000000000000000000000000000000000000000000000000000000000000000000000010000000000
00000000000000000000000000000000000000000000000000000000000000000000000000000000010000000000
00000000000000000000000000000000000000000000000000000000000000000000000000000000010000000000
00000000000000000000000000000000000000000000000000000000000000000000000000000000010000000000
00000000000000000000000000000000000000000000000000000000000000000000000000000000010000000000
00000000000000000000000000000000000000000000000000000000000000000000000000000000010000000000
00000000000000000000000000000000000000000000000000000000000000000000000000000000010000000000
00000000000000000000000000000000000000000000000000000000000000000000000000000000010000000000
00000000000000000000000000000000000000000000000000000000000000000000000000000000010000000000
00000000000000000000000000000000000000000000000000000000000000000000000000000000010000000000
00000000000000000000000000000000000000000000000000000000000000000000000000000000010000000000
00000000000000000000000000000000000000000000000000000000000000000000000000000000010000000000
00000000000000000000000000000000000000000000000000000000000000000000000000000000010000000000
00000000000000000000000000000000000000000000000000000000000000000000000000000000010000000000
00000000000000000000000000000000000000000000000000000000000000000000000000000000010000000000
00000000000000000000000000000000000000000000000000000000000000000000000000000000010000000000
00000000000000000000000000000000000000000000000000000000000000000000000000000000010000000000
00000000000000000000000000000000000000000000000000000000000000000000000000000000010000000000
00000000000000000000000000000000000000000000000000000000000000000000000000000000010000000000
00000000000000000000000000000000000000000000000000000000000000000000000000000000010000000000
00000000000000000000000000000000000000000000000000000000000000000000000000000000010000000000
00000000000000000000000000000000000000000000000000000000000000000000000000000000010000000000
00000000000000000000000000000000000000000000000000000000000000000000000000000000010000000000
00000000000000000000000000000000000000000000000000000000000000000000000000000000010000000000
00000000000000000000000000000000000000000000000000000000000000000000000000000000010000000000
00000000000000000000000000000000000000000000000000000000000000000000000000000000010000000000
00000000000000000000000000000000000000000000000000000000000000000000000000000000010000000000
00000000000000000000000000000000000000000000000000000000000000000000000000000000010000000000
00000000000000000000000000000000000000000000000000000000000000000000000000000000010000000000
00000000000000000000000000000000000000000000000000000000000000000000000000000000010000000000
00000000000000000000000000000000000000000000000000000000000000000000000000000000010000000000
00000000000000000000000000000000000000000000000000000000000000000000000000000000010000000000
00000000000000000000000000000000000000000000000000000000000000000000000000000000010000000000
00000000000000000000000000000000000000000000000000000000000000000000000000000000010000000000
00000000000000000000000000000000000000000000000000000000000000000000000000000000010000000000
00000000000000000000000000000000000000000000000000000000000000000000000000000000010000000000
00000000000000000000000000000000000000000000000000000000000000000000000000000000010000000000
00000000000000000000000000000000000000000000000000000000000000000000000000000000010000000000
00000000000000000000000000000000000000000000000000000000000000000000000000000000010000000000
00000000000000000000000000000000000000000000000000000000000000000000000000000000010000000000
00000000000000000000000000000000000000000000000000000000000000000000000000000000010000000000
00000000000000000000000000000000000000000000000000000000000000000000000000000000010000000000
00000000000000000000000000000000000000000000000000000000000000000000000000000000010000000000
00000000000000000000000000000000000000000000000000000000000000000000000000000000010000000000
00000000000000000000000000000000000000000000000000000000000000000000000000000000010000000000
00000000000000000000000000000000000000000000000000000000000000000000000000000000010000000000
00000000000000000000000000000000000000000000000000000000000000000000000000000000010000000000
00000000000000000000000000000000000000000000000000000000000000000000000000000000010000000000
00000000000000000000000000000000000000000000000000000000000000000000000000000000010000000000
00000000000000000000000000000000000000000000000000000000000000000000000000000000010000000000
00000000000000000000000000000000000000000000000000000000000000000000000000000000010000000000
00000000000000000000000000000000000000000000000000000000000000000000000000000000010000000000
00000000000000000000000000000000000000000000000000000000000000000000000000000000010000000000
00000000000000000000000000000000000000000000000000000000000000000000000000000000010000000000
00000000000000000000000000000000000000000000000000000000000000000000000000000000010000000000
00000000000000000000000000000000000000000000000000000000000000000000000000000000010000000000
00000000000000000000000000000000000000000000000000000000000000000000000000000000010000000000
00000000000000000000000000000000000000000000000000000000000000000000000000000000010000000000
00000000000000000000000000000000000000000000000000000000000000000000000000000000010000000000
00000000000000000000000000000000000000000000000000000000000000000000000000000000010000000000
00000000000000000000000000000000000000000000000000000000000000000000000000000000010000000000
00000000000000000000000000000000000000000000000000000000000000000000000000000000010000000000
00000000000000000000000000000000000000000000000000000000000000000000000000000000010000000000
00000000000000000000000000000000000000000000000000000000000000000000000000000000010000000000
00000000000000000000000000000000000000000000000000000000000000000000000000000000010000000000
00000000000000000000000000000000000000000000000000000000000000000000000000000000010000000000
00000000000000000000000000000000000000000000000000000000000000000000000000000000010000000000
00000000000000000000000000000000000000000000000000000000000000000000000000000000010000000000
00000000000000000000000000000000000000000000000000000000000000000000000000000000010000000000
00000000000000000000000000000000000000000000000000000000000000000000000000000000010000000000
00000000000000000000000000000000000000000000000000000000000000000000000000000000010000000000
00000000000000000000000000000000000000000000000000000000000000000000000000000000010000000000
00000000000000000000000000000000000000000000000000000000000000000000000000000000010000000000
00000000000000000000000000000000000000000000000000000000000000000000000000000000010000000000
00000000000000000000000000000000000000000000000000000000000000000000000000000000010000000000
00000000000000000000000000000000000000000000000000000000000000000000000000000000010000000000
00000000000000000000000000000000000000000000000000000000000000000000000000000000010000000000
00000000000000000000000000000000000000000000000000000000000000000000000000000000010000000000
00000000000000000000000000000000000000000000000000000000000000000000000000000000010000000000
00000000000000000000000000000000000000000000000000000000000000000000000000000000010000000000
00000000000000000000000000000000000000000000000000000000000000000000000000000000010000000000
00000000000000000000000000000000000000000000000000000000000000000000000000000000010000000000
00000000000000000000000000000000000000000000000000000000000000000000000000000000010000000000
00000000000000000000000000000000000000000000000000000000000000000000000000000000010000000000
00000000000000000000000000000000000000000000000000000000000000000000000000000000010000000000
00000000000000000000000000000000000000000000000000000000000000000000000000000000010000000000
00000000000000000000000000000000000000000000000000000000000000000000000000000000010000000000
00000000000000000000000000000000000000000000000000000000000000000000000000000000010000000000
00000000000000000000000000000000000000000000000000000000000000000000000000000000010000000000
00000000000000000000000000000000000000000000000000000000000000000000000000000000010000000000
00000000000000000000000000000000000000000000000000000000000000000000000000000000010000000000
00000000000000000000000000000000000000000000000000000000000000000000000000000000010000000000
00000000000000000000000000000000000000000000000000000000000000000000000000000000010000000000
00000000000000000000000000000000000000000000000000000000000000000000000000000000010000000000
00000000000000000000000000000000000000000000000000000000000000000000000000000000010000000000
00000000000000000000000000000000000000000000000000000000000000000000000000000000010000000000
00000000000000000000000000000000000000000000000000000000000000000000000000000000010000000000
00000000000000000000000000000000000000000000000000000000000000000000000000000000010000000000
00000000000000000000000000000000000000000000000000000000000000000000000000000000010000000000
00000000000000000000000000000000000000000000000000000000000000000000000000000000010000000000
00000000000000000000000000000000000000000000000000000000000000000000000000000000010000000000
00000000000000000000000000000000000000000000000000000000000000000000000000000000010000000000
00000000000000000000000000000000000000000000000000000000000000000000000000000000010000000000
00000000000000000000000000000000000000000000000000000000000000000000000000000000010000000000
00000000000000000000000000000000000000000000000000000000000000000000000000000000010000000000
00000000000000000000000000000000000000000000000000000000000000000000000000000000010000000000
00000000000000000000000000000000000000000000000000000000000000000000000000000000010000000000
00000000000000000000000000000000000000000000000000000000000000000000000000000000010000000000
00000000000000000000000000000000000000000000000000000000000000000000000000000000010000000000
00000000000000000000000000000000000000000000000000000000000000000000000000000000010000000000
00000000000000000000000000000000000000000000000000000000000000000000000000000000010000000000
00000000000000000000000000000000000000000000000000000000000000000000000000000000010000000000
00000000000000000000000000000000000000000000000000000000000000000000000000000000010000000000
00000000000000000000000000000000000000000000000000000000000000000000000000000000010000000000
00000000000000000000000000000000000000000000000000000000000000000000000000000000010000000000
00000000000000000000000000000000000000000000000000000000000000000000000000000000010000000000
00000000000000000000000000000000000000000000000000000000000000000000000000000000010000000000
00000000000000000000000000000000000000000000000000000000000000000000000000000000010000000000
00000000000000000000000000000000000000000000000000000000000000000000000000000000010000000000
00000000000000000000000000000000000000000000000000000000000000000000000000000000010000000000
00000000000000000000000000000000000000000000000000000000000000000000000000000000010000000000
00000000000000000000000000000000000000000000000000000000000000000000000000000000010000000000
00000000000000000000000000000000000000000000000000000000000000000000000000000000010000000000
00000000000000000000000000000000000000000000000000000000000000000000000000000000010000000000
00000000000000000000000000000000000000000000000000000000000000000000000000000000010000000000
00000000000000000000000000000000000000000000000000000000000000000000000000000000010000000000
00000000000000000000000000000000000000000000000000000000000000000000000000000000010000000000
00000000000000000000000000000000000000000000000000000000000000000000000000000000010000000000
00000000000000000000000000000000000000000000000000000000000000000000000000000000010000000000
00000000000000000000000000000000000000000000000000000000000000000000000000000000010000000000
00000000000000000000000000000000000000000000000000000000000000000000000000000000010000000000
00000000000000000000000000000000000000000000000000000000000000000000000000000000010000000000
00000000000000000000000000000000000000000000000000000000000000000000000000000000010000000000
00000000000000000000000000000000000000000000000000000000000000000000000000000000010000000000
00000000000000000000000000000000000000000000000000000000000000000000000000000000010000000000
00000000000000000000000000000000000000000000000000000000000000000000000000000000010000000000
00000000000000000000000000000000000000000000000000000000000000000000000000000000010000000000
00000000000000000000000000000000000000000000000000000000000000000000000000000000010000000000
00000000000000000000000000000000000000000000000000000000000000000000000000000000010000000000
00000000000000000000000000000000000000000000000000000000000000000000000000000000010000000000
00000000000000000000000000000000000000000000000000000000000000000000000000000000010000000000
00000000000000000000000000000000000000000000000000000000000000000000000000000000010000000000
00000000000000000000000000000000000000000000000000000000000000000000000000000000010000000000
00000000000000000000000000000000000000000000000000000000000000000000000000000000010000000000
00000000000000000000000000000000000000000000000000000000000000000000000000000000010000000000
00000000000000000000000000000000000000000000000000000000000000000000000000000000010000000000
00000000000000000000000000000000000000000000000000000000000000000000000000000000010000000000
00000000000000000000000000000000000000000000000000000000000000000000000000000000010000000000
00000000000000000000000000000000000000000000000000000000000000000000000000000000010000000000
00000000000000000000000000000000000000000000000000000000000000000000000000000000010000000000
00000000000000000000000000000000000000000000000000000000000000000000000000000000010000000000
00000000000000000000000000000000000000000000000000000000000000000000000000000000010000000000
00000000000000000000000000000000000000000000000000000000000000000000000000000000010000000000
00000000000000000000000000000000000000000000000000000000000000000000000000000000010000000000
00000000000000000000000000000000000000000000000000000000000000000000000000000000010000000000
00000000000000000000000000000000000000000000000000000000000000000000000000000000010000000000
00000000000000000000000000000000000000000000000000000000000000000000000000000000010000000000
00000000000000000000000000000000000000000000000000000000000000000000000000000000010000000000
00000000000000000000000000000000000000000000000000000000000000000000000000000000010000000000
00000000000000000000000000000000000000000000000000000000000000000000000000000000010000000000
00000000000000000000000000000000000000000000000000000000000000000000000000000000010000000000
00000000000000000000000000000000000000000000000000000000000000000000000000000000010000000000
00000000000000000000000000000000000000000000000000000000000000000000000000000000010000000000
00000000000000000000000000000000000000000000000000000000000000000000000000000000010000000000
00000000000000000000000000000000000000000000000000000000000000000000000000000000010000000000
00000000000000000000000000000000000000000000000000000000000000000000000000000000010000000000
00000000000000000000000000000000000000000000000000000000000000000000000000000000010000000000
00000000000000000000000000000000000000000000000000000000000000000000000000000000010000000000
00000000000000000000000000000000000000000000000000000000000000000000000000000000010000000000
00000000000000000000000000000000000000000000000000000000000000000000000000000000010000000000
00000000000000000000000000000000000000000000000000000000000000000000000000000000010000000000
00000000000000000000000000000000000000000000000000000000000000000000000000000000010000000000
00000000000000000000000000000000000000000000000000000000000000000000000000000000010000000000
00000000000000000000000000000000000000000000000000000000000000000000000000000000010000000000
00000000000000000000000000000000000000000000000000000000000000000000000000000000010000000000
00000000000000000000000000000000000000000000000000000000000000000000000000000000010000000000
