59c7ccb515549295455b8f40e63c292d2ae2c40aa4a5d2aafb902aab2c52a00e0000003ff00ffc00000000200c00
851c5437555567b5551522154157d55451715149a71922aa49928aac010ca2a50000003ff00ffffe000000200c10
f6aaaa50aaaaac5bdaaa31d67aa8c555bab954c7a835895a854a85aa82a80a890000003ff00ffc00000000200c20
0ab8c995eaab6e6aa8951aa85154da515446a585456b63434e9294b96d8b682b0000003ff00ffffe000000200c30
daaaaa77eaaaad1aaaaaa9aaaaef16aaad416abed5f4a0757f41674674d6bd750000003ff00ffc00000000200c40
3e6e723c5554981541457b100554b590455149a4445932ab48d1aaa588caaa8e0000003ff00ffc00000000200c50
fa6373b8e7543fb5958ead6d2abd558aaa37b4aaf4c22a234f28848c52a445350000003ff00ffc02000000200c60
1a9c5503d55524054555caa02550baa0555aa159570b1af5f2136958a51a95d20000003ff00ffc00000000200c70
e5d4cfb3393984edd5ab44a84aa04a97aa9da90aaa5a98aaa9a84adeaa8ca6e20000003ff00ffc00000000200c80
ce55533cd5551c9555552e3555541701555124255592629950402aa4080aaa580000003ff00ffc00000000200c90
ed574956157dd2a8c2a920a42a8a2ad6a58a2c4a583292bc532869465492b7250000003ff00ffffe000000200ca0
9d555c9f4fdd5624a915b24a814252a9528d0ad4aa3da80aab5a928810a829260000003ff00ffffe000000200cb0
6aaaabc8aaaaa97aaaaaa9caaa9c46aa5576b2b4554214614fbd7b5e64d4935f0000003ff00ffc00000000200cc0
3feaa28e94aec98150ecca15247f1552895b757a161454a559054e5352d425180000003ff00ffc00000000200cd0
64a3221c22aa9d36aaaadd62aa2fc4aaaea1aaacd7d35228650544a7657550250000003ff00ffc00000000200ce0
abdccdb9aaaaa74a4a35aaa06a336a942ecaa54aa9ea54aaba95c82bb94488aa0000003ff00ffffe000000200cf0
a194cd104811ab58e13b61a81718aa8544c2a2a4522aaa51428aa66d546b5ed30000003ff00ffc00000000200d00
0c65530855555835561a6a542921559d52995c65a2948008a14aaaad12aaaae90000003ff00ffc00000000200d10
93aa8da1a2aaaaffcaaafff43aac015558a907556aed5555a029955c928aaac00000003ff00ffffe000000200d20
42d670eeed4d7132285146aa31546aa20566ab4a17aad4b140a54858ba85c40a0000003ff00ffffe000000200d30
72a22dadd552aab155aa6f855137ab35898a8e58adaa84bee26a494faf0674fa0000003ff00ffc00000000200d40
5c5d7336555551c552524e5726a8c511ba91599aaab6854aa86e96baa2096ab90000003ff00ffffe000000200d50
ab9c8d81c2aaaf1aaaaadaaa1aaacab6aba6ae5aa9ea954a9eecd6aca9c94afa0000003ff00ffffe000000200d60
7ed5734c455555c1695596b0a150baaa3542a8884caa94b440ad4528aa9b52080000003ff00ffffe000000200d70
74465cc15dddd014a955264a955075a937674a815494ad8a694ac0a70aacabfa0000003ff00ffc00000000200d80
7c5d57815559980c552b46750aa1ed54aeb8552ac83550ade9504853b0a496aa0000003ff00ffc00000000200d90
876b32ca15d498d15a46db5585769559052b351a653cd2a5e86d2a96325a6d5e0000003ff00ffc00000000200da0
71dd56dbd5554db59555722b5416faf14b46aa9108aa88395aac5ca42ac8aa5a0000003ff00ffffe000000200db0
2d0b89e122adc749ca8d186aada96a6aa4aa1aac8a704ad0af55251e655ae7b50000003ff00ffc00000000200dc0
c2b8ae9caaab26caaaaa6cad2aab6957a83ef540e16d7162be59d5cbf45954350000003ff00ffffe000000200dd0
4055cdb146c48275ea0b576ab701d3a805871aa10a312982f1ba90ab1ba80a9a0000003ff00ffc00000000200de0
04aaaa63eaad4a37a8e45704c175a55d5576a04542a0a45162a8aae5aa8aae5a0000003ff00ffc00000000200df0
16abab5faaaac30aaa9ad0e6b16d2d68d06452ad561568b553b4cb71444e94970000003ff00ffc00000000200e00
0e6b72041dd33bd145aaa2550aac35529a6b5581a1100a15681aa59302ad45000000003ff00ffffe000000200e10
79555d46ad513f48a51adc2a09a052ac0a94284ea95aad2aa4ba72ab2b252aaa0000003ff00ffffe000000200e20
6dd5540f3d51300aa43522ea12d3daa5a58d6a435a32a4b5312b488582a48aea0000003ff00ffffe000000200e30
33aa8882fab2679be9d5e597e95f0166d542d625562d71554e941526a8e9691a0000003ff00ffc00000000200e40
d2bc4d4fd517617755020bb5526d9051513195554291545758012a4c920aa8db0000003ff00ffffe000000200e50
01d5cdf33d29248ab44af2eb46a87aa56ab72a42aabaa1aa9d3b5a9a9a35b08a0000003ff00ffffe000000200e60
0ab8ad7eaaaaa6daaaaa8aad02ad6956abe2991aa8af910aea821402a8ad4c390000003ff00ffc00000000200e70
b3548cf3a2a973cafea906a72b22e952a9928c8a3baa9490a3d5492ab876929a0000003ff00ffc00000000200e80
dc1563c355574a4561641c7c9269b6a932a1aaa54a1a2a569d44ad69544ad6b50000003ff00ffc00000000200e90
5d8aabbb2aada02aabcec0eab4e81cabc88d10add8158ad29f542d6bd45ad6a70000003ff00ffc00000000200ea0
d2bc0f22ea9eab12a16a179e56cc14756099c8d7eda5ed23b8525a581505d4d90000003ff00ffc00000000200eb0
a2aaaa69aaaaa43eabded1eaa85447a91455d6a8d55558a9575568c7c5d4a9970000003ff00ffc02000000200ec0
a66d558c55577a51555512154557b054a169c10a97a852894b5481a9b54baaab0000003ff00ffffe000000200ed0
138cac39aaa8678aaff8dcaaeabd48eab46690ab55a50a9353b5ab454d520d970000003ff00ffc00000000200ee0
5cb8ab5baea9c7cacaaa10d42aa84d2aa2115aab9995158ced556ad6551483f50000003ff00ffc00000000200ef0
8aa62fd3aa06a43aadb3c98ae95c952a5559552d77954a59545ab5e3f5015b350000003ff00ffc02000000200f00
1d77731755555a6558550620ad5064aa2db424baa78b2a6abd40d0b3960551150000003ff00ffc02000000200f10
9157550815523b4d34b1129bcb52baaab4caaa085d4ab6eddca0c6a8a843ea9a0000003ff00ffc00000000200f20
9d5d5cef154d566556ad68542ac25016a6b9406a0a9802acb9a02943941255670000003ff00ffc00000000200f30
5c4574c655557831529d1a51295156da95ac34a093396ac8f952a4ca962b528e0000003ff00ffc00000000200f40
e6e332b71e9816a529bafd5aaaaf04aaaa21eaa8a4540a03215545c26d3554650000003ff00ffc00000000200f50
026a2d9ad1b1a1d769541f36d575a875096a840a34a852996ad4a9a9a54a2aba0000003ff00ffffe000000200f60
bd55554305ad55654a556a56ad6bf94a468f94b40a991b40bda5b66eca0902720000003ff00ffffe000000200f70
5aaaad1eeaa7a47aa9fe51a8546c9f1555e057254ba4ca95326aa95517aad56a0000003ff00ffc00000000200f80
f46f737655555fb52d55465ac557f5a56550e200544620ab509ccaa4a88aaad60000003ff00ffc00000000200f90
ca988d17aaaaacdaa22b4ccb54888abd48868ab46b2aaa0c8aaa37d938e35c9a0000003ff00ffc00000000200fa0
cd6b33ed979b5a253aaefd42aabad6aaae0d50aa46580a897524a1e4413958650000003ff00ffc02000000200fb0
bd55ace902a49ce92a43ea56a528416a0e9e14a4abea6bca90a4b29788e929360000003ff00ffffe000000200fc0
e15dcd20902f42e132a53cb02b03c852969ca5695a9a525508a12428ca8a02e10000003ff00ffffe000000200fd0
7d575de155555f555555373155507a05d4c2255bafb223bce94696abb28b6b8a0000003ff00ffffe000000200fe0
d5dd5448d49396ec572a12570aa1e940aa8948aaa939012cb3405ae3bd15a2690000003ff00ffc00000000200ff0
00000000000000000000000000000000000000000000000000000000000000000000000000000000010000000000
00000000000000000000000000000000000000000000000000000000000000000000000000000000010000000000
00000000000000000000000000000000000000000000000000000000000000000000000000000000010000000000
00000000000000000000000000000000000000000000000000000000000000000000000000000000010000000000
00000000000000000000000000000000000000000000000000000000000000000000000000000000010000000000
00000000000000000000000000000000000000000000000000000000000000000000000000000000010000000000
00000000000000000000000000000000000000000000000000000000000000000000000000000000010000000000
00000000000000000000000000000000000000000000000000000000000000000000000000000000010000000000
00000000000000000000000000000000000000000000000000000000000000000000000000000000010000000000
00000000000000000000000000000000000000000000000000000000000000000000000000000000010000000000
00000000000000000000000000000000000000000000000000000000000000000000000000000000010000000000
00000000000000000000000000000000000000000000000000000000000000000000000000000000010000000000
00000000000000000000000000000000000000000000000000000000000000000000000000000000010000000000
00000000000000000000000000000000000000000000000000000000000000000000000000000000010000000000
00000000000000000000000000000000000000000000000000000000000000000000000000000000010000000000
00000000000000000000000000000000000000000000000000000000000000000000000000000000010000000000
00000000000000000000000000000000000000000000000000000000000000000000000000000000010000000000
00000000000000000000000000000000000000000000000000000000000000000000000000000000010000000000
00000000000000000000000000000000000000000000000000000000000000000000000000000000010000000000
00000000000000000000000000000000000000000000000000000000000000000000000000000000010000000000
00000000000000000000000000000000000000000000000000000000000000000000000000000000010000000000
00000000000000000000000000000000000000000000000000000000000000000000000000000000010000000000
00000000000000000000000000000000000000000000000000000000000000000000000000000000010000000000
00000000000000000000000000000000000000000000000000000000000000000000000000000000010000000000
00000000000000000000000000000000000000000000000000000000000000000000000000000000010000000000
00000000000000000000000000000000000000000000000000000000000000000000000000000000010000000000
00000000000000000000000000000000000000000000000000000000000000000000000000000000010000000000
00000000000000000000000000000000000000000000000000000000000000000000000000000000010000000000
00000000000000000000000000000000000000000000000000000000000000000000000000000000010000000000
00000000000000000000000000000000000000000000000000000000000000000000000000000000010000000000
00000000000000000000000000000000000000000000000000000000000000000000000000000000010000000000
00000000000000000000000000000000000000000000000000000000000000000000000000000000010000000000
00000000000000000000000000000000000000000000000000000000000000000000000000000000010000000000
00000000000000000000000000000000000000000000000000000000000000000000000000000000010000000000
00000000000000000000000000000000000000000000000000000000000000000000000000000000010000000000
00000000000000000000000000000000000000000000000000000000000000000000000000000000010000000000
00000000000000000000000000000000000000000000000000000000000000000000000000000000010000000000
00000000000000000000000000000000000000000000000000000000000000000000000000000000010000000000
00000000000000000000000000000000000000000000000000000000000000000000000000000000010000000000
00000000000000000000000000000000000000000000000000000000000000000000000000000000010000000000
00000000000000000000000000000000000000000000000000000000000000000000000000000000010000000000
00000000000000000000000000000000000000000000000000000000000000000000000000000000010000000000
00000000000000000000000000000000000000000000000000000000000000000000000000000000010000000000
00000000000000000000000000000000000000000000000000000000000000000000000000000000010000000000
00000000000000000000000000000000000000000000000000000000000000000000000000000000010000000000
00000000000000000000000000000000000000000000000000000000000000000000000000000000010000000000
00000000000000000000000000000000000000000000000000000000000000000000000000000000010000000000
00000000000000000000000000000000000000000000000000000000000000000000000000000000010000000000
00000000000000000000000000000000000000000000000000000000000000000000000000000000010000000000
00000000000000000000000000000000000000000000000000000000000000000000000000000000010000000000
00000000000000000000000000000000000000000000000000000000000000000000000000000000010000000000
00000000000000000000000000000000000000000000000000000000000000000000000000000000010000000000
00000000000000000000000000000000000000000000000000000000000000000000000000000000010000000000
00000000000000000000000000000000000000000000000000000000000000000000000000000000010000000000
00000000000000000000000000000000000000000000000000000000000000000000000000000000010000000000
00000000000000000000000000000000000000000000000000000000000000000000000000000000010000000000
00000000000000000000000000000000000000000000000000000000000000000000000000000000010000000000
00000000000000000000000000000000000000000000000000000000000000000000000000000000010000000000
00000000000000000000000000000000000000000000000000000000000000000000000000000000010000000000
00000000000000000000000000000000000000000000000000000000000000000000000000000000010000000000
00000000000000000000000000000000000000000000000000000000000000000000000000000000010000000000
00000000000000000000000000000000000000000000000000000000000000000000000000000000010000000000
00000000000000000000000000000000000000000000000000000000000000000000000000000000010000000000
00000000000000000000000000000000000000000000000000000000000000000000000000000000010000000000
00000000000000000000000000000000000000000000000000000000000000000000000000000000010000000000
00000000000000000000000000000000000000000000000000000000000000000000000000000000010000000000
00000000000000000000000000000000000000000000000000000000000000000000000000000000010000000000
00000000000000000000000000000000000000000000000000000000000000000000000000000000010000000000
00000000000000000000000000000000000000000000000000000000000000000000000000000000010000000000
00000000000000000000000000000000000000000000000000000000000000000000000000000000010000000000
00000000000000000000000000000000000000000000000000000000000000000000000000000000010000000000
00000000000000000000000000000000000000000000000000000000000000000000000000000000010000000000
00000000000000000000000000000000000000000000000000000000000000000000000000000000010000000000
00000000000000000000000000000000000000000000000000000000000000000000000000000000010000000000
00000000000000000000000000000000000000000000000000000000000000000000000000000000010000000000
00000000000000000000000000000000000000000000000000000000000000000000000000000000010000000000
00000000000000000000000000000000000000000000000000000000000000000000000000000000010000000000
00000000000000000000000000000000000000000000000000000000000000000000000000000000010000000000
00000000000000000000000000000000000000000000000000000000000000000000000000000000010000000000
00000000000000000000000000000000000000000000000000000000000000000000000000000000010000000000
00000000000000000000000000000000000000000000000000000000000000000000000000000000010000000000
00000000000000000000000000000000000000000000000000000000000000000000000000000000010000000000
00000000000000000000000000000000000000000000000000000000000000000000000000000000010000000000
00000000000000000000000000000000000000000000000000000000000000000000000000000000010000000000
00000000000000000000000000000000000000000000000000000000000000000000000000000000010000000000
00000000000000000000000000000000000000000000000000000000000000000000000000000000010000000000
00000000000000000000000000000000000000000000000000000000000000000000000000000000010000000000
00000000000000000000000000000000000000000000000000000000000000000000000000000000010000000000
00000000000000000000000000000000000000000000000000000000000000000000000000000000010000000000
00000000000000000000000000000000000000000000000000000000000000000000000000000000010000000000
00000000000000000000000000000000000000000000000000000000000000000000000000000000010000000000
00000000000000000000000000000000000000000000000000000000000000000000000000000000010000000000
00000000000000000000000000000000000000000000000000000000000000000000000000000000010000000000
00000000000000000000000000000000000000000000000000000000000000000000000000000000010000000000
00000000000000000000000000000000000000000000000000000000000000000000000000000000010000000000
00000000000000000000000000000000000000000000000000000000000000000000000000000000010000000000
00000000000000000000000000000000000000000000000000000000000000000000000000000000010000000000
00000000000000000000000000000000000000000000000000000000000000000000000000000000010000000000
00000000000000000000000000000000000000000000000000000000000000000000000000000000010000000000
00000000000000000000000000000000000000000000000000000000000000000000000000000000010000000000
00000000000000000000000000000000000000000000000000000000000000000000000000000000010000000000
00000000000000000000000000000000000000000000000000000000000000000000000000000000010000000000
00000000000000000000000000000000000000000000000000000000000000000000000000000000010000000000
00000000000000000000000000000000000000000000000000000000000000000000000000000000010000000000
00000000000000000000000000000000000000000000000000000000000000000000000000000000010000000000
00000000000000000000000000000000000000000000000000000000000000000000000000000000010000000000
00000000000000000000000000000000000000000000000000000000000000000000000000000000010000000000
00000000000000000000000000000000000000000000000000000000000000000000000000000000010000000000
00000000000000000000000000000000000000000000000000000000000000000000000000000000010000000000
00000000000000000000000000000000000000000000000000000000000000000000000000000000010000000000
00000000000000000000000000000000000000000000000000000000000000000000000000000000010000000000
00000000000000000000000000000000000000000000000000000000000000000000000000000000010000000000
00000000000000000000000000000000000000000000000000000000000000000000000000000000010000000000
00000000000000000000000000000000000000000000000000000000000000000000000000000000010000000000
00000000000000000000000000000000000000000000000000000000000000000000000000000000010000000000
00000000000000000000000000000000000000000000000000000000000000000000000000000000010000000000
00000000000000000000000000000000000000000000000000000000000000000000000000000000010000000000
00000000000000000000000000000000000000000000000000000000000000000000000000000000010000000000
00000000000000000000000000000000000000000000000000000000000000000000000000000000010000000000
00000000000000000000000000000000000000000000000000000000000000000000000000000000010000000000
00000000000000000000000000000000000000000000000000000000000000000000000000000000010000000000
00000000000000000000000000000000000000000000000000000000000000000000000000000000010000000000
00000000000000000000000000000000000000000000000000000000000000000000000000000000010000000000
00000000000000000000000000000000000000000000000000000000000000000000000000000000010000000000
00000000000000000000000000000000000000000000000000000000000000000000000000000000010000000000
00000000000000000000000000000000000000000000000000000000000000000000000000000000010000000000
00000000000000000000000000000000000000000000000000000000000000000000000000000000010000000000
00000000000000000000000000000000000000000000000000000000000000000000000000000000010000000000
00000000000000000000000000000000000000000000000000000000000000000000000000000000010000000000
00000000000000000000000000000000000000000000000000000000000000000000000000000000010000000000
00000000000000000000000000000000000000000000000000000000000000000000000000000000010000000000
00000000000000000000000000000000000000000000000000000000000000000000000000000000010000000000
00000000000000000000000000000000000000000000000000000000000000000000000000000000010000000000
00000000000000000000000000000000000000000000000000000000000000000000000000000000010000000000
00000000000000000000000000000000000000000000000000000000000000000000000000000000010000000000
00000000000000000000000000000000000000000000000000000000000000000000000000000000010000000000
00000000000000000000000000000000000000000000000000000000000000000000000000000000010000000000
00000000000000000000000000000000000000000000000000000000000000000000000000000000010000000000
00000000000000000000000000000000000000000000000000000000000000000000000000000000010000000000
00000000000000000000000000000000000000000000000000000000000000000000000000000000010000000000
00000000000000000000000000000000000000000000000000000000000000000000000000000000010000000000
00000000000000000000000000000000000000000000000000000000000000000000000000000000010000000000
00000000000000000000000000000000000000000000000000000000000000000000000000000000010000000000
00000000000000000000000000000000000000000000000000000000000000000000000000000000010000000000
00000000000000000000000000000000000000000000000000000000000000000000000000000000010000000000
00000000000000000000000000000000000000000000000000000000000000000000000000000000010000000000
00000000000000000000000000000000000000000000000000000000000000000000000000000000010000000000
00000000000000000000000000000000000000000000000000000000000000000000000000000000010000000000
00000000000000000000000000000000000000000000000000000000000000000000000000000000010000000000
00000000000000000000000000000000000000000000000000000000000000000000000000000000010000000000
00000000000000000000000000000000000000000000000000000000000000000000000000000000010000000000
00000000000000000000000000000000000000000000000000000000000000000000000000000000010000000000
00000000000000000000000000000000000000000000000000000000000000000000000000000000010000000000
00000000000000000000000000000000000000000000000000000000000000000000000000000000010000000000
00000000000000000000000000000000000000000000000000000000000000000000000000000000010000000000
00000000000000000000000000000000000000000000000000000000000000000000000000000000010000000000
00000000000000000000000000000000000000000000000000000000000000000000000000000000010000000000
00000000000000000000000000000000000000000000000000000000000000000000000000000000010000000000
00000000000000000000000000000000000000000000000000000000000000000000000000000000010000000000
00000000000000000000000000000000000000000000000000000000000000000000000000000000010000000000
00000000000000000000000000000000000000000000000000000000000000000000000000000000010000000000
00000000000000000000000000000000000000000000000000000000000000000000000000000000010000000000
00000000000000000000000000000000000000000000000000000000000000000000000000000000010000000000
00000000000000000000000000000000000000000000000000000000000000000000000000000000010000000000
00000000000000000000000000000000000000000000000000000000000000000000000000000000010000000000
00000000000000000000000000000000000000000000000000000000000000000000000000000000010000000000
00000000000000000000000000000000000000000000000000000000000000000000000000000000010000000000
00000000000000000000000000000000000000000000000000000000000000000000000000000000010000000000
00000000000000000000000000000000000000000000000000000000000000000000000000000000010000000000
00000000000000000000000000000000000000000000000000000000000000000000000000000000010000000000
00000000000000000000000000000000000000000000000000000000000000000000000000000000010000000000
00000000000000000000000000000000000000000000000000000000000000000000000000000000010000000000
00000000000000000000000000000000000000000000000000000000000000000000000000000000010000000000
00000000000000000000000000000000000000000000000000000000000000000000000000000000010000000000
00000000000000000000000000000000000000000000000000000000000000000000000000000000010000000000
00000000000000000000000000000000000000000000000000000000000000000000000000000000010000000000
00000000000000000000000000000000000000000000000000000000000000000000000000000000010000000000
00000000000000000000000000000000000000000000000000000000000000000000000000000000010000000000
00000000000000000000000000000000000000000000000000000000000000000000000000000000010000000000
00000000000000000000000000000000000000000000000000000000000000000000000000000000010000000000
00000000000000000000000000000000000000000000000000000000000000000000000000000000010000000000
00000000000000000000000000000000000000000000000000000000000000000000000000000000010000000000
00000000000000000000000000000000000000000000000000000000000000000000000000000000010000000000
00000000000000000000000000000000000000000000000000000000000000000000000000000000010000000000
00000000000000000000000000000000000000000000000000000000000000000000000000000000010000000000
00000000000000000000000000000000000000000000000000000000000000000000000000000000010000000000
00000000000000000000000000000000000000000000000000000000000000000000000000000000010000000000
00000000000000000000000000000000000000000000000000000000000000000000000000000000010000000000
00000000000000000000000000000000000000000000000000000000000000000000000000000000010000000000
00000000000000000000000000000000000000000000000000000000000000000000000000000000010000000000
00000000000000000000000000000000000000000000000000000000000000000000000000000000010000000000
00000000000000000000000000000000000000000000000000000000000000000000000000000000010000000000
