68aaa84666cc28a27feb070d8f7cb6422794418e1052488211df07895b1aa04c0000003ff00ffc00000000200000
b631ee6d90c1a7e422ab80a1933252b8a88bb660e38c33c0206efa938e8588820000003ff00ffc00000000200010
42435319848c4d254df2c7a10d74868a8296458698003c2221004343a0c794180000003ff00ffc00000000200020
ba2a2baa6abae8a2aeaaaa3a28aba80aecaaa2abacab3aaaeb8aeaaaaa9ae8a80000003ff00ffc00000000200030
1b165e785c2a5509be8a1a2ce007a230a98ea3bea07031927e82de1e5d0400870000003ff00ffc00000000200040
a1f2808063b4884f20201a224883086d5ff0ebd60e23cacd9ad9a0a10d2a02530000003ff00ffc00000000200050
b808a0468642a8a25c29c303b6cb101274b90ad0bbe11bca0a8918b25c000ea10000003ff00ffc00000000200060
50708814658905019e7c2a28098e21438a86618d7462cca1829510194e280c750000003ff00ffc00000000200070
abefad111e2c88b2520bc262b673cefda1e16f6144e220b8a2a0a2624886a71b0000003ff00ffc00000000200080
3835abe6e1002568020a707bfe0600b9060900e22962488d2edee88c8a1ad4eb0000003ff00ffc00000000200090
258aa2ef2a16f8f22e78ae6a06cc283aed8810ba759201eaedeefa88df08d4ce0000003ff00ffc000000002000a0
6131e665004127e444b940b29b3070bce08a9660e38822c088ea9eb2ee988a820000003ff00ffc000000002000b0
83017c990a29ae764c4384a3bf709aac22329220035c140d4d00602ca092f04c0000003ff00ffc000000002000c0
eccb9a382b761050b32cb99e60cb210de42f9200e39d8201acac434e8296a1b60000003ff00ffc000000002000d0
140069725180f082af9a8791692a24a0a2ea0e8ab42a19b6d1591cd4abcc0c220000003ff00ffc000000002000e0
aec1020840b400d5a008281649506d0457d128d72e21ceadd3d8b4b91022105b0000003ff00ffc000000002000f0
2ada1a08ac28486cbdddc350b31ec4ba54f0ca5cba309bce5ae914b65c248c110000003ff00ffc00000000200100
11e0814644cc2500383929a8091a00c2399f29897dabedb89aebf6b35e20cc750000003ff00ffc00000000200110
2eaa011a82d48aac6491e469a7da1eaba1eb353a49d3e0be630639825be204a20000003ff00ffc00000000200120
1214ace56180c7a99b26740cf62d25b0c3494c2f482a48f000142bc8a3aa75ea0000003ff00ffc00000000200130
268ec41b86474ab27b6a8f2b87fcb222e29aa09ba9920aba1c267f8a7b3b286e0000003ff00ffc00000000200140
91017613592ed1b64011689a086558cdf12b12e5ed2933c759451e36fd180c460000003ff00ffc00000000200150
02005d8b98aa8fda8f024f97cda2b84b2622d22003d434864d34692ea0b6cacc0000003ff00ffc00000000200160
a8deafa9a92aea2b222a8aaaa8aea2afaaa2a08aa28882ab8aaa08e6a4a8cb2b0000003ff00ffc00000000200170
12042b6a9062679aae964644311a24a269cded8834a1317cbaab17145e8182160000003ff00ffc00000000200180
a1d1929844208851b76c8b0e48c021465f7519d72e638ead480ca02b142650130000003ff00ffc00000000200190
2a88201eda4acab24ddb4763977896ba66e0490abb70d9db0ae314367c0cbc280000003ff00ffc000000002001a0
14342fe6f10b2709abbe4745d3163491060601855e0e340324be6b8c0303f1740000003ff00ffc000000002001b0
abaaa4836120083ad0ea82e0be1adb7fbae90a634aafaab90182fc69a0e2ca2f0000003ff00ffc000000002001c0
30100ae5fd08438b1b0e660dfa2260b086b641260a42c8e32134e923412e79ee0000003ff00ffc000000002001d0
22ac820e84d64aa63bea813b8fec32028092458f600628b2a502530c23aa89ae0000003ff00ffc000000002001e0
1631ee65d0cd27a440bb00a0d320daa8689bb660e18812c0aaeadeb38e018a860000003ff00ffc000000002001f0
230b76190c88ce744d73c7b00de0948e8282442f00583c000122c20282d7b5900000003ff00ffc00000000200200
a9ddc039263298517a6690c031a36337880294435207b6206400624722e7b3980000003ff00ffc00000000200210
10327fe1b1aa058b8e86b23dd027c4e169cd040eb46121f656dbd4945d1809820000003ff00ffc00000000200220
a9c9001026f05846f3289b6e4842a345dfd1aad64e419acddad8a8b94c62027b0000003ff00ffc00000000200230
6ac8844092092af077d98053be8b96b614f08adcba709a8eca093cb23c248e200000003ff00ffc00000000200240
58260b46f1102529ae3c6d88011f2003b81624a954ad1c19a63223bc5c1182f40000003ff00ffc00000000200250
2fee051b865f9ab659d1e153ae7adeefb6613b1a48d7c29fc104f07a89e623620000003ff00ffc00000000200260
52312888750804019a2c3e0c00a42151931d4588302249b20511094123e645680000003ff00ffc00000000200270
afeae4b982bda8725f6a8bae09fc93c2a60e07abbf92a0f2492ceaaaa90a20ae0000003ff00ffc00000000200280
38a87b4ec19663ac4030280a00cd384ddc999a74fa983ac6d9055c1ca4ec8a250000003ff00ffc00000000200290
830b7c990a63fe724c53c5812df2988b0e329421835834016506420da2dad0a80000003ff00ffc000000002002a0
a9f8928927321851b22e999e348b611f02301624599bc6622100e8c8a2ca70be0000003ff00ffc000000002002b0
1c264946e1042500a28b7000fa06b8f829e8cb0a0078396e80fb9eb45f812a070000003ff00ffc000000002002c0
edd98018442840e4fd28974e49c603445ef02bd73c658e8d90ddb4f14828067b0000003ff00ffc000000002002d0
2acc033e84625aba79db41638170241e2ff469861470982a8aeb34a25f182e800000003ff00ffc000000002002e0
0e367c6658633728aca38481fb1e1e34c40a8020439d3203200083ca82e721ba0000003ff00ffc000000002002f0
2bea8d9b2d14081056eb8a66b6fbdaf7b2e92a294baf22b81200a42978577b2b0000003ff00ffc00000000200300
d014ace06500404a9a06126ff6a5c610d659d432e81a21dc01022b4103eea0aa0000003ff00ffc00000000200310
a6cc80180e5548507b68898c0ccc3346513d0e35e183e3f06a02e02ea166c7880000003ff00ffc00000000200320
52304b47d00127ad40aa402196175868e579f654b1b833d4b5ebdf95de18888f0000003ff00ffc00000000200330
321058299acaeedba3e64fdc491238eb2e00c220835134088d244008a2d2f29c0000003ff00ffc00000000200340
a08ab2902b34105ab22c8b0e608b090df1279230e79d2300adbc829c898650e40000003ff00ffc00000000200350
1c604b0238ae470cb79e93d4603004a079deef8c5071b95c922316f095e92a870000003ff00ffc00000000200360
ef99001264310802df4c83cd4078a7445ef069d61c56ce2609ddbcf9484c2e7b0000003ff00ffc00000000200370
229925389a50dafa79d98541977cd69e73e04802bd30d8ea4aa1243b3c1498380000003ff00ffc00000000200380
9822334660d027a8aeaf15dcfe8e1230c4429230c39d3601a380235bc9a3a1900000003ff00ffc00000000200390
8fab8499060faa16f813c061b20fdeb92329136041e3a26824e0222240863cd80000003ff00ffc000000002003a0
b1580ca12f9c0d0d90643a8a24a52582e189653bc80a277060030b4223efaba80000003ff00ffc000000002003b0
27ee800b224778b67f6a8f2f064cb342a29e84af6c0228aa7daf6a8a4b3b8cee0000003ff00ffc000000002003c0
1832eb57d9d807ac00b928aa8e60b84c3478b2dc39ee6adfd7631c557ef7c8e50000003ff00ffc000000002003d0
868aa09a02159afc00d165806ddc3c13a6011221c39d35014d0c619489d2447d0000003ff00ffc000000002003e0
a9f8da9124308841322d88927083483d92061000738f8621a452034882e6f1b80000003ff00ffc000000002003f0
1a7a4ba06c8a940eaf9a4718e12622b0a2ae828ab7aa2982bd81df47b8414c5a0000003ff00ffc00000000200400
a28100184ae7baf0b00cb89c28cd2105ded9ebd6ca359ac5ca0ca8a1a066375b0000003ff00ffc00000000200410
ba6b8418848c1ab07f48837228ca9a8274a10adcaae18a868888a8b2dc180c020000003ff00ffc00000000200420
5070ca84850c0489fe683a2c00de21438bb7618db4e28da49a8b04890e3a9abb0000003ff00ffc00000000200430
2eaa870086d68990009970f0a26bd8ef0a8a692301c668a5b034a9f088db2f6b0000003ff00ffc00000000200440
12144b64e900efcb9b1e725dfa24c6b0065900462862c8fb089c6989a12af4ec0000003ff00ffc00000000200450
adeaa0180add28a65f6a89230fecb342fb5603bb7482c9f42106230b73b8810c0000003ff00ffc00000000200460
0773ec65d04f272400fb00a89322f2a8a88ba460c38c22c02aeef2a7de91cc960000003ff00ffc00000000200470
87aab28a021d9ffa00d165507fde1cbbaa201223839d350105046341a3d260dc0000003ff00ffc00000000200480
adcb908826d56801b23c3a9a68882105f52f1a88b1d95768e6244346a2d4a3940000003ff00ffc00000000200490
98186be1718027849c9770ddf01d04a0e8ed038ab0a929dedecade965d8108860000003ff00ffc000000002004a0
84f29b0c67d044c961a0f33bece1c4a8bba03d4ff72aa721bef303802e1adafa0000003ff00ffc000000002004b0
2a882a6ecae24ae229db412a827c006a0efce802ba3099dada43167676649e210000003ff00ffc000000002004c0
183618e6f1892509299f4345f33630b08e36018d1606fc0320f1438c0303b9f50000003ff00ffc000000002004d0
248aaeaaabaaa8ab0a8f72aa8aaaa8baaaaaaaabe2aecaaa6f2162b8ee8a2bae0000003ff00ffc000000002004e0
aa923caaba88c8bcbbeecfeeaab8a6ae28be21a91822eb90aaa8a8aaaaaaaaba0000003ff00ffc000000002004f0
2ae22aaaebaa8cbaacaabaaa98aaa882aa88a2aeaaca3aaba822ee8eebea0a280000003ff00ffc00000000200500
22a3368718301b280015789a0cf9384d401992f5fa091381782e5e36fd0808c60000003ff00ffc00000000200510
a28864a99a8bfaf2265687d2211a08ab84004021828c3c05a522010182f2f38c0000003ff00ffc00000000200520
e1ddd0b00633085172c180d63033483d90211261e38f068125860b888294f59c0000003ff00ffc00000000200530
11086ee341aa07abb68af60cf004a7a0a9aae70e907239761ac3de36dd9108870000003ff00ffc00000000200540
69c9901806dc98d553629267e4c2db25f4539ad0afc90780c200a8ae58e300230000003ff00ffc00000000200550
6a8b80188214da302059019228c8569e16f1aa562a308a8f4801345274649c000000003ff00ffc00000000200560
8d36edc27a43a720ceab1484f316beb08c029222c39c3243249023c882a7a3390000003ff00ffc00000000200570
29ea8403271409082712e67ba61308693b78699809f340be010010d005ef00030000003ff00ffc00000000200580
525648ecf508a54b9b3e724bfead21b002dd472ec822e9f020166ba2a3eaa7aa0000003ff00ffc00000000200590
a5cfc61a0a4778f27f6a8f3707ecb302c996418f740209b2550267da2132c82a0000003ff00ffc000000002005a0
5a32ef6630c127a440ab00a383207a28e08b9670e3880394b5ee5e95fd118c470000003ff00ffc000000002005b0
268848abb6b33f5bafc6c7d4211a28670e02c0228240340e6720400ca292adce0000003ff00ffc000000002005c0
2b5d80100042c800000380d0b723481d51651a7175a946810d8c48981118c4e80000003ff00ffc000000002005d0
90007a63702a65a38f9af69d713416a029ede58e1071395e92eb96145d8128870000003ff00ffc000000002005e0
060019388042e2daa9c0a70bf8e7c5cbef9023d2a70b822114fb03810a9a90c80000003ff00ffc000000002005f0
a28c01388a037a33aaff4a8a8338e30a0eaecd06cc28987ad8211e4776659e010000003ff00ffc00000000200600
5730ed66c9c52503dcfc6d8001882183914218b56e89260100daa34300e720b00000003ff00ffc00000000200610
efeb0d19124fa886409be0e1b273debd02ebed6241bbe23c2523f64741b52eba0000003ff00ffc00000000200620
9a1adfea6282a08c8ea8bbaea82aaaaba2aa8a0d823c0aa83e6ac1823ebbe2680000003ff00ffc00000000200630
afca843b0215f8967b6b8f370fecb25aca96554f6c12a0b26d0655d12d3a892c0000003ff00ffc00000000200640
0280770318304b380014288a08dd284d81290286222a2e8fd5430644645c8a8b0000003ff00ffc00000000200650
22807caf9e23fe7b2ec687d46a3aa8230e02c022824c3c024524400db2d2b79c0000003ff00ffc00000000200660
c8fcda922c20084121af40da76a348388c029000d29d260362322be201e3b28a0000003ff00ffc00000000200670
1822d6474132050e8a86ba6dba3707d02b8d358cb5e101b65dcffcbc5d1044c70000003ff00ffc00000000200680
aad8020826441840222a1882408329055ef8e9d60833ca4d9218a0214a20ab530000003ff00ffc00000000200690
a489221e82060a227d5a030a8978a24e1df0cb0e3a7088ae4a6114327c259e100000003ff00ffc000000002006a0
5832c856e10925019e682a88018e21c38a86600f3406cc21903316390803a8310000003ff00ffc000000002006b0
6e2b2558c24fa08440936041a212dca8216be762c1d12398622aa282019371800000003ff00ffc000000002006c0
0014325115024c42b706926df20a0034757b9270e1912350210c2bc881a710ea0000003ff00ffc000000002006d0
66ee800aa6c76a865fea8d0d8f7cb742a390108f708209a2090eead0091a08ee0000003ff00ffc000000002006e0
a3233f8b1c34513a4055689a88f1584d601112f569ab0790eae55636fc100e560000003ff00ffc000000002006f0
870934990a4bfa7208c3e6903ff0de8a02331221c70c34810d8e426a829270c80000003ff00ffc00000000200700
e1ee823043324053b22c988e600b210d842a9200819d82432436c20e8297f1ee0000003ff00ffc00000000200710
1430797c7105b407ae9ad291ba0e02a8b1ea1e88b3bafbc899099ed0abc308220000003ff00ffc00000000200720
e7ccb282e194e0d1a0003016e84128255ff1abd66e31da8d0299a4a9002b3b4b0000003ff00ffc00000000200730
a28c2a6ee0627a3a22db40822338615a04fcc822c83c98fbf0231c1676249e210000003ff00ffc00000000200740
18207cc2e109a4219efd6d80091c31838006440d560f2c31b2f2a7894a0bf8340000003ff00ffc00000000200750
ad8aa0020333aafa008bece2beb1defc1aa028621c64c8af001179c8297a676f0000003ff00ffc00000000200760
1410a94a4102664e9726166df22424507179dd78e9b2e37851028a4603e711aa0000003ff00ffc00000000200770
a58d8c8a2a2db8507f788b2600eca3422b9031ce78d280868ba2a22af138ecc60000003ff00ffc00000000200780
92116f24c1416fea00910800d0353848a15db4f1fda813d496eb5784de188cc60000003ff00ffc00000000200790
0309643998c9faf040c3c0a0fff0de8880011021838524812584e32182baf66c0000003ff00ffc000000002007a0
a4c9a22882317851132c38186803210cf12f124863d7e362af2cc34a82d3a1980000003ff00ffc000000002007b0
10046f62380a47298e8e629c72300cb22b88c50e9031397ed083967791e903820000003ff00ffc000000002007c0
a9f9820844a00853fd288b9e48e203465ff12bd61e67ce8d08d5a4105c0e14530000003ff00ffc000000002007d0
a28c097890235a3b22df40808e19224a14fcc826a8309acada211c327c249e210000003ff00ffc000000002007e0
1c30a4e6fbd1a7a208912800ea183c8a80060125ee0d260124d2e28c132821fa0000003ff00ffc000000002007f0
6eef050984cf8aa0409be0e2a242ceef02e06d200873e83d9419ac68e1ebab0a0000003ff00ffc00000000200800
383caae6f102bdaa9a8f3649fe066130062c00a60a62c06b2f6ee8ae581a55ef0000003ff00ffc00000000200810
2f8aa41902572aa67fea8f2d876cb3428890458e7402c9b2440b4ed3bbaa02280000003ff00ffc00000000200820
13306d2798426f6a40a028a38d707048ed19b2f4fb8c1bc5976b1f157f1888450000003ff00ffc00000000200830
6a8b2218048c883440f368a02de0b68080000004820c2a812002034282d7b3280000003ff00ffc00000000200840
ed5fc1a02421c801bb3c499c6808a102f12f1ac931fb1ea9ae28430682d5a1960000003ff00ffc00000000200850
14205e645100250a8e843ea5312605f02b8d258a05e111bcbaebf63c5d1148870000003ff00ffc00000000200860
61c0121006544849b0288a8e68c101455ef12bd60e01da4d82d8a0a8002311530000003ff00ffc00000000200870
a28c212a86635afb20d9418a8a99023e18fc896cba309bcada631c165e219e010000003ff00ffc00000000200880
1c3429e6f19325082cbc4d00011e3083800604057e0e1c19203aa38bca21abb00000003ff00ffc00000000200890
2fea15198c8d880044196873a213ceed3bf36d4f0843d23c8a10b12aa2a333120000003ff00ffc000000002008a0
5c34d8c66190a508804a70aabe04e1b0130d182a28a2cbf8221e2b89ab2ad5e80000003ff00ffc000000002008b0
2dca841b26e70a825fe987378ffcb2e2ae1455af2c5241a24d0643084b3964ce0000003ff00ffc000000002008c0
11917f83582045484435282a4c81284c88825065520c1e07dc631425fc548ac10000003ff00ffc000000002008d0
822178891ca29e2a416283b5ede2ba262e325220935cb4034d00602ea2e681840000003ff00ffc000000002008e0
c8c99a38a7740041b33cb81e68c2010df42f9240f399b7022428030aa2d4a3960000003ff00ffc000000002008f0
12047f661a625492b69e7485200a34a029efe70814b0315eda2196175c910a170000003ff00ffc00000000200900
e5d982184cdcc8c55120904edc801a4756511ad72ee99e8dd2c90099286602390000003ff00ffc00000000200910
6e8b223a8a547ab6225901d22878ce9e54e08a42aa38da8f4001045754659c090000003ff00ffc00000000200920
16142966d94367aafffc6d84011831cb80021005d68d3411a1f6e34d011224f40000003ff00ffc00000000200930
eeee80032a8da8b6de8bc2e0931adaf58be1592141fa2abd41002d4820c72a0a0000003ff00ffc00000000200940
50340b24692804499b2e3e2c60042151a38d4db88862c974211ae9c683e641ea0000003ff00ffc00000000200950
a58aa4ab2a24f8d26e78af2206eca0126b1c102a25d288aaccaeea8aeb38d8ee0000003ff00ffc00000000200960
1031778790ec47e800bca8aa08e1384c34bba89d78aa0a8ff5621e1432feca650000003ff00ffc00000000200970
838b30180c0cde7508c06f806deaba82861692a1831c340145046042a3d6c08c0000003ff00ffc00000000200980
c8f3ca9867a02041012cb81e6883082da4229200e3ddb343820223ca82c7a1a80000003ff00ffc00000000200990
98107b33510874a6bf9256d4e03e02a0b9ed3e8ab7f8199699cb1ed0abc300020000003ff00ffc000000002009a0
e9c00a8065fc4048202090336883292c5ef069d60a53de6da2b82ba8082a39530000003ff00ffc000000002009b0
2a8ba01c8a145a32225901d209d8304e56f09812aa38da8ee8000453746490010000003ff00ffc000000002009c0
5e34bcda7aab25016ab9098119165386068629295e8fa401a6e8a2294a23b8b20000003ff00ffc000000002009d0
2eea051984578a047510a173a2ca8eef13b031da2152c8be19011e1981a604020000003ff00ffc000000002009e0
90121ca0bc88c78dbb8663a9b6a2e622a28ac929480aeaf020332b00a3ebaaa80000003ff00ffc000000002009f0
afee801c2e57c8b07f688f2e06ccb202aa9a31af785288a2cd0efeca212a01a60000003ff00ffc00000000200a00
11336f03c1aa07a840bd08e38c70b84ca03b9af47abc2a8657231e956e9888cd0000003ff00ffc00000000200a10
02017c8b8a22de7b247687f06dfaa82f0612b02b03501500af26600ba2dab2980000003ff00ffc00000000200a20
88cb92a86721a001b32cb81e68c3210de42f9240e3dd33622426c2428090b1800000003ff00ffc00000000200a30
98365f6354802787b79a7accfa06a0e0298ae10ab0603976beea96b65d810a070000003ff00ffc00000000200a40
0080aab00222a84a3000291e28c14defdff13bf3ef890a8503f9248909aa802a0000003ff00ffc00000000200a50
23d8157e904ae8aa29db434f937484ba70f04d0c3870d85aaaeb94a25f189e140000003ff00ffc00000000200a60
58342166f1a32522ccbd6d88011c15c3c4070835ff8d2601a11e82e882a285f00000003ff00ffc00000000200a70
69ea000b8456081875b9c1f3a27a8a6e3ee06d8b0856c0bf0108a04089ee356b0000003ff00ffc00000000200a80
10140f667530c509831e326dfe0524f1060969220822c9e000146be8812afea80000003ff00ffc00000000200a90
a7ae80180e5598d27f6a892e0de8f342f98b12717d0263f06802204ba2e4cb880000003ff00ffc00000000200aa0
2570ec65808507ac40f100809b2058b8e89a9660e18c2380b1ea1eb2ae80a8820000003ff00ffc00000000200ab0
238b7419109ddafc4c718d803de0d78e821625a7c0043421850a034aa2d6f1b00000003ff00ffc00000000200ac0
a2eb0a8baaaaeafaaaaa3aaeaaabbaaeaea328aaab8eaeaaaafa8b196c2afb280000003ff00ffc00000000200ad0
5d26646761c02380878674a8aa0a20a02be8ed0a103ab83e10eb96d4f7982a040000003ff00ffc00000000200ae0
e4c08818608ca4c161283a2a48c48fe9fbb66ddf542aa720be331386020b92110000003ff00ffc00000000200af0
6e8ca05ec216eaae39d94367a35e061e58e48848b27099ca8a8b14925c249e800000003ff00ffc00000000200b00
18360b06cca805099a6c2ea800cb21438a96610f5caa0c09923773116a21c4340000003ff00ffc00000000200b10
3e2a235fe3dfa0a022976663b21f0cb93149af2801f363f844828a8251c120a20000003ff00ffc00000000200b20
90108cacf7886509920a3a0bba25e3b0a289c52b282a69f42816aac881eaf5ea0000003ff00ffc00000000200b30
27eeb05524c328a67dc9c7158f7cb6e28f94358f364640a305ae428d6938e44c0000003ff00ffc00000000200b40
12217f97b93307ac0097689a8bd558eca00f94f5ea8d2301f4475a14864c00460000003ff00ffc00000000200b50
a08974ab9abafa7224d6e1d269ba28af80063489000c0c8d27a2a2028aaba1e90000003ff00ffc00000000200b60
bcabaaaabeaaa82bb2aa6a8aaaadbaaaaaaaaaaea2a83aa002eaaa2aaabbdee80000003ff00ffc00000000200b70
18324dd751840501b693748cea0cb03029e8e50a103838fe9eeb9e963f910a860000003ff00ffc00000000200b80
84cc828242345853b000309afa4129255f712bd76e0bcaa50ac9a4a1242a1a0b0000003ff00ffc00000000200b90
22843b3e9e425a3a7b4b8573957c861e2ff061029470d86acbedb4b23c1c08100000003ff00ffc00000000200ba0
5074c874710d25019ee82f20091031438b96610d7ce2ec211ed382012a039c750000003ff00ffc00000000200bb0
2e6a011b81cd28ae2790e773b2578cf939796db821f341fc01870ea091a24ca20000003ff00ffc00000000200bc0
d0702de8750a20ac9a043e8ca2ad25b0b19f45a8e82240f225049bc8a3e605ea0000003ff00ffc00000000200bd0
a78e82a92225d8527f688f2606ccb3422e9231a72a5280a2ef04f26a313d98ae0000003ff00ffc00000000200be0
0f72ee65d0c627ac00bc50a88f20faace08ba470c28c23c07e6cd2a4fc15cc860000003ff00ffc00000000200bf0
a2107c893eabee5baec6c7d0793aa86f0e00e021125054024e00680cb092a6d20000003ff00ffc00000000200c00
a9f0929826329849b20c98de76cb690dc3071a61758bc7232566a9c8abfad1a60000003ff00ffc00000000200c10
1c16677750e8078e9e96721de00527a1e988e60ea061395e500b9c7495c50b070000003ff00ffc00000000200c20
02d20a00042408493020880e60c300055ff12bd72e31de8582daa5a1022213790000003ff00ffc00000000200c30
6eaaac1898476a267fdb434ea13c281e78e4e908b87099caaac306277c6430100000003ff00ffc00000000200c40
5e342566d3833722a4bdcc80d9141900c4029021c78d3603b3e4e323c30120d60000003ff00ffc00000000200c50
2eea0118841f88b460116073a27bceea23e37d6a4ac2e03ee2872832a3a264680000003ff00ffc00000000200c60
5204aa677140446b9b26160d72a524102b69452ae03a61740003234001ffaa280000003ff00ffc00000000200c70
a1a980ab2221b8507e788bae08e8a3422290018f3a52808289a3b818e139b04e0000003ff00ffc00000000200c80
91317497113c113c0095e89a08b078cc800910e7ea8d0e8552271c1cfd500ce00000003ff00ffc00000000200c90
c28a22088c8c4f2668f1cda02dee1c8a943246a382589c056506c147a3f6e1180000003ff00ffc00000000200ca0
a8d4d2b9272258592004899634ab482da0061440438f2601a61e434e9296f1940000003ff00ffc00000000200cb0
1a226a27e9223708bd9ac71de93a22a2a08c028ab46839a6d9811c0068c10e020000003ff00ffc00000000200cc0
04d09b6ce548e5cb6120223be8e44ea9bba3ad4be52ba7203ee102810e1adaca0000003ff00ffc00000000200cd0
eaa8243c90166a347f59010209c897de39f1fa00b830dace4841045376659a010000003ff00ffc00000000200ce0
1c356966717325039a6c2da000493503e50b1831c9ad2650a01a9ac8812a21e40000003ff00ffc00000000200cf0
a98acfaa7daaa88baaaeba2aa28baaaa2aa8eaaa2aa21aaabeaababa1aaa3e220000003ff00ffc00000000200d00
f835ebe661a12d690029b09a7e0509d946092812096249e92a9c6988802ad6ed0000003ff00ffc00000000200d10
a7cec41906cf18427f6b8f2707ecb143fa9e473a740269f26e0a139843e088880000003ff00ffc00000000200d20
70a203e7e1d467ad00bc08eaca752848a0fa9af8aba84af8efca1ede3ad688e60000003ff00ffc00000000200d30
a08b2a180ae8c8c2447348a3ede0de8c88000205020d2a0524208366a2d692810000003ff00ffc00000000200d40
98aeceaaeb2ae8a3abae9aaaaac9eaaab8eaa8acabaa26eaa8aeeab8aaf2ea8b0000003ff00ffc00000000200d50
16852f22382045b2bf1606d4011834a079cfcd0875ab317c9afb15955e118a970000003ff00ffc00000000200d60
80d4130226304049b52c9a5e608121455df13ad76e59de8d82d82521422a33590000003ff00ffc00000000200d70
6a09001880510ab4efd8824aaa8a96a217f08adcba70988e98091cbafc0c0c220000003ff00ffc00000000200d80
0d2ae4b679c9a306008b3080fb145a98a40280204a0c340320e0a38062183bba0000003ff00ffc00000000200d90
abab80896d242812d6ebc2e2b65adb77bae92a610baee0b81280fa4c00ef002d0000003ff00ffc00000000200da0
d21408e4719885af9b6e754df2b9e6f4431d446b282261f0013ee9c9017a6dee0000003ff00ffc00000000200db0
e5ec80882e2528567f788b2608e8b3420e9031a6385280b6df02a6aaa1182dce0000003ff00ffc00000000200dc0
12337d3b58c203e82019a8a24e60b84c04b890c579ae1e8d95630c007658a8ac0000003ff00ffc00000000200dd0
20c51c0a8aeaeacb45734281edb0d889a40ac22082c934002536410aa2d6f2940000003ff00ffc00000000200de0
aefbaeaaeaaaaabbb22abaa0aaa9aaaaaba7a2acb2aa8ba7eaae09ba2292f8990000003ff00ffc00000000200df0
10804ee3b1a004099ca616454039254079cd4f982da921dc96fb95b45d100a850000003ff00ffc00000000200e00
a490a0b08b12b0ca9000b89828c145cbcf912bf2ef8982a14ad934b920ae82280000003ff00ffc00000000200e10
aafe04c294421a2b79d943609774a75e15f049403830d95a8ae934b37c3db8100000003ff00ffc00000000200e20
00b4c966f153252b23bd298801081587c5022021c58f6e41a0bbe7c803eba1b80000003ff00ffc00000000200e30
a98aac8b2a2cb83ad0aac2e39e0acb7d3ae958624a6470fc0494f84821ead02c0000003ff00ffc00000000200e40
90340ea7fd08258d9ace32affaa1e7f1a28cc93e4a2a6af010f769a8233ab8e80000003ff00ffc00000000200e50
27cf84180a675a527b6b8d260fecb242aa96618f7802a8b25e0e6f8c432288e20000003ff00ffc00000000200e60
113123031120d3ee00956882893058c8815414dd7da80e9492eb1e94df18ccc60000003ff00ffc00000000200e70
23897019008cc8844ce28db22da09e8e0016c52702003c0124028142a2f7b1100000003ff00ffc00000000200e80
edd9801906630842724380d037235b1d53611a4173abaea105474c48005a60880000003ff00ffc00000000200e90
16042a66592677fe8e46374d7b2c86fa29ad05a815e1917c9beef43c5d114c070000003ff00ffc00000000200ea0
e5c982246358a0c8a120388f6081394d5ef9abd64a619acd1999a0a1046221530000003ff00ffc00000000200eb0
268e31c7231258ba28fb430ba68aa0b214fd88a0aa1092ca5a690c265c250e110000003ff00ffc00000000200ec0
d174ca11c50aa101ba383828019e21422bbc61a9fde0edf48a8b80892abb8a3b0000003ff00ffc00000000200ed0
efcf8c981e17a816d04be2e0b26bdef903e96f6b07aba2f8cfa0221c08d3a0f60000003ff00ffc00000000200ee0
52300948718e0525933c7e0c410421502bad4588b562697400820a408bb708880000003ff00ffc00000000200ef0
afaaa4180245f8967b6a89270de8b342d1984c3a7882c3f2480211c26b71ab880000003ff00ffc00000000200f00
120b7f0bd02053b04051e89a0871784dc91bb2f4eb8922c5f9635616ec000c560000003ff00ffc00000000200f10
a698a028fa0bea7aaf1787d2218818ad8440688180892e8cae22030742a381610000003ff00ffc00000000200f20
a9d492042f300851b204154c70034f3981079429c58d3370263203028281f38c0000003ff00ffc00000000200f30
10026f62782a47298e86d6c9601d04e029afe78e106039fe12c394145dc100070000003ff00ffc00000000200f40
00408918e510b4432100aa0be8e74cebebb03dd3e722a6219df302980a1ad0ca0000003ff00ffc00000000200f50
6a5a8418906228a4df488372aada8a8614f08a8cba619a8e488db8bbfc0c06220000003ff00ffc00000000200f60
1a240b46a8b005298e2c2f28019f214308122c0b58ac2c999626735a4a21d4740000003ff00ffc00000000200f70
2ee30d5988430aa868d16571b372deaa206ba52a41536150400b0688118619a20000003ff00ffc00000000200f80
20e01aeafb82aaa0baab3aaa8aa818aaa0aaaaaaaaaea8ea27226aa62402faca0000003ff00ffc00000000200f90
00000000000000000000000000000000000000000000000000000000000000000000000000000000010000000000
00000000000000000000000000000000000000000000000000000000000000000000000000000000010000000000
00000000000000000000000000000000000000000000000000000000000000000000000000000000010000000000
00000000000000000000000000000000000000000000000000000000000000000000000000000000010000000000
00000000000000000000000000000000000000000000000000000000000000000000000000000000010000000000
00000000000000000000000000000000000000000000000000000000000000000000000000000000010000000000
