aad6a548afaa02aae8aaaaa4aaaaaddcaa811450c5334955552d918954794b3d0000003ff00ffc00000000001400
ab6ea06aa40aa8a87ca04c14ca1555c51155d556d11c954a0669e22af66f34e70000003ff00ffc00000000001410
93bb69425be57966ac8915abca3b4aadaa97a9d8ab52a510906bd4090aad72950000003ff00ffc00000000001420
d54cb5abb10a4aa9d6b42aa9ad52aa029528442a54204a95688d2a54e24b8c400000003ff00ffc00000000001430
2af3548a8d954215cb555554b555557b555553b005542a8a15eaa202aaaa880a0000003ff00ffffe000000001440
56fc9250af48252ac0ae0aad2abaaadcab29c96aa5c5b2a0514f9d14565545aa0000003ff00ffc00000000001450
1582954552855555127155792857d2bab2aaabaa8aee78a8abd68b1fe81ab92a0000003ff00ffc00000000001460
c565562d5d5524555512b540134a556554a5535d435574b33557ca951547a0550000003ff00ffc00000000001470
da02a2f50ae881528ab555afab554a2a954aa4aa40a818a8a0b6aaa8291aaaae0000003ff00ffc00000000001480
d43d55ac0b754b47cf46a0c1a52bd012c4b91da168eb7804a2b62d58227aac2a0000003ff00ffffe000000001490
2a44aaaaad7a0aaadca2a121c889504c81554140454549505560d948ce5f88ba0000003ff00ffc000000000014a0
24cd9852692c2d0fad324aaed594b3255548315556c1565528150212a901052a0000003ff00ffc000000000014b0
547d555555d561578145d52aaa3f02daa2aaab62aaaa880aaa29daae84b62ab00000003ff00ffc020000000014c0
aaa296a2a9a94c5b92b6a5ab2aa85aaeaa95ab2aa552b2b9442bea558abe956a0000003ff00ffc000000000014d0
aaa2aa2b53aa77550f76d55ad045552912d572dd6d6ab7a24baa11a53ab89a530000003ff00ffc020000000014e0
8a95484221509402dda960a0aa947256ad06152a902d0aad4412aa80845aaa810000003ff00ffffe0000000014f0
6bcba952ddaad7693aad5585ca5579d4a57f2046931005ab3e21db14887506ae0000003ff00ffc00000000001500
552555555655146291032a212ab0aa2ea82aa92ab2a8baa80a53cc05a5c6a6000000003ff00ffc00000000001510
025e024aac10ecaafc892aa1a74aaa5c98aaa76cb1914a405535a1a5554a96350000003ff00ffc00000000001520
45a4ac95532d2d553744955b551a54a95ea46f9182cab11b2b6a56f6aaa54d2a0000003ff00ffc00000000001530
42a35f544bd4214ead4196ab9629b9bf4aa99bf52ab48f76b5560ecd1991f4c90000003ff00ffc00000000001540
05979ad06c0d296af892aaaacd8aaaf2cdaaaf2e02a0ded364072d15044ac5550000003ff00ffffe000000001550
d6ba8a544bea6956a4aa954b52a958b3eab28ab1ba1ead5d264b144290ad523b0000003ff00ffc00000000001560
4736a5a97b2c0ad5a154ad6bd19ac2ad4ca52f51cb42b55eb5ab4d9d58eca9d40000003ff00ffc00000000001570
96cb19d122dae55a6da050aad76529f5475aa39555ac0e45ca7c1416a110582a0000003ff00ffc00000000001580
abbb1012527542555715555415555513455550b3a9546aaab9728020a8aaac0a0000003ff00ffc00000000001590
454b5090bdc4c2a1dac5a541fc5944dd51539c5555a9c954babd97aa007f6a920000003ff00ffffe0000000015a0
155cd9d0515adb4eaca5b2aaab5aaaaab5aa8b2d4a213a7480d2a548540a66a90000003ff00ffc000000000015b0
94d95aad4dd60a544349b525296b4a5ad092a529492ada9291a82a2942aab2c40000003ff00ffc000000000015c0
14b50c4b4d5456b5cd512b51155ad7dad4a548450a543f03c5242950d6f214050000003ff00ffc020000000015d0
a8da5228959582ad7f114a91d5556545554a54545e148f76dd692245551a15450000003ff00ffc000000000015e0
b0ae921a2e686190fd028954d4ad555558955cd549547747954b12424aaa52ba0000003ff00ffc000000000015f0
ca674aaaac1a2aaacac0aa288405005455544f2c55240bfc55a92b63476a69c50000003ff00ffc00000000001600
926e5095a614ad01660a54476aa54d6ea942402a94ad1aa20abc8a0a040aae050000003ff00ffc00000000001610
a9a376a85ca8aab4c2ada9652a2a15daaab51c2aab500ab2748cef5352fd554d0000003ff00ffc00000000001620
25178548603154aabd54eab25202af742aaa746eaa11dc20ca8cc455580d55400000003ff00ffc00000000001630
537a1291a6a8ad402aa2503f9ab509fd2b40ab509405e3290449d29412bb8c950000003ff00ffc02000000001640
4069ca354ad4425459a8b5604a9b4ecd8895ad50a912e5c2d5aef829548daab50000003ff00ffc00000000001650
885aa28982aa2cbbbde04abb5054aba5454ab9d510aba500cabbd402abaf16aa0000003ff00ffc00000000001660
0a56ab59203a558a2b556a9a3556ad2255a950655a425640a4242b498b907a2a0000003ff00ffffe000000001670
413880b51cc5ab55276aa541543a54555d2d2df15a94293329579aabcc5ea2ba0000003ff00ffc00000000001680
6aae6c06ac344222c752a1451542554b57354427b75c1a3b7da820f092f22e490000003ff00ffc00000000001690
55314942f2554e32ad512b5b9551541a55555ba555552a8c14e32a2893faaaab0000003ff00ffc000000000016a0
11ae94f1132d4807aac4aeaaad4aaaa2d5a3872c5ae23ad5a05a205ce21a95aa0000003ff00ffffe0000000016b0
f0c31258a20a258289205aaed4adab645a5ab1a5550906555430b522111a94970000003ff00ffc000000000016c0
f404514a33744c813b5d4a0aaf94aa2aab5ae22ab5a2ba00123b3b052603d5420000003ff00ffc000000000016d0
953961c5511539551d409552b43254abf6a56babaa4c388d266b0cbecaea6a800000003ff00ffc000000000016e0
a8e2aaaaad28a2824620a55454c9565556d545d5157e576753911151122951150000003ff00ffc000000000016f0
a9dbebaaa2a8552b3a0152ba50d56ab53b52a89420baa102a0c3c113e92e3f460000003ff00ffc00000000001700
18aab101abeaf2ab9ea842bf6aa16ba0aa96b9d0a92ba55182fad5d6aab5442a0000003ff00ffc00000000001710
414251a95dc49255c2d2b54dade9505a8150c52b94a74aaa6bbda2a82d5aaa810000003ff00ffc00000000001720
0afd4aaead5aaaaacdaaaaade6aa16d51005454515605c55542d650454f580a50000003ff00ffc00000000001730
563edca445a5490dd052815ed5ad15e55ac55ad4a500656a442c74b56af552c50000003ff00ffc02000000001740
2a3cac22b52ad2835aa52875ab52f452a5254c2ad554daa845c8b288ce52a9aa0000003ff00ffffe000000001750
592153459b5495a1ad294a125295553d6ad55ad0a55525025512d3a516b542aa0000003ff00ffc02000000001760
3a5c105ea559d32b6c92928fa5052bfe4152c126656a4a1252bd38c52351d14a0000003ff00ffc00000000001770
ad52852d53eb43555a40d552f05557a05950bb955032291daa60114f293a58b80000003ff00ffc00000000001780
22df51016e750a0ad3ca48a526b4c94ca94bb16a9451eea861bcca820102ac8c0000003ff00ffffe000000001790
57a5b504688a41a2a2aaaaefaaaaaeaaaaa8af2aacea92a1222d9d550fe155780000003ff00ffc000000000017a0
a9cc3b483374d4d5632c49562b34b5ae2b595a6a64d53ed55b571d04b501574b0000003ff00ffc000000000017b0
a4cb5a454ab4ad04b16a545b56a519a54a50abd4a48af54ac46fd6c711bd76d50000003ff00ffc000000000017c0
2af4550aa43092ab57342a952a8a055eaab1586aa951faaa58bdea9456ed95540000003ff00ffc000000000017d0
591aaa94638aa565baab544bc2952eada953ab48d342f188a58a990c10bfa58d0000003ff00ffc020000000017e0
0928b0d252752555135ad553553155ad4ab51ad5ab0aa5608222569292b550aa0000003ff00ffc020000000017f0
00000000000000000000000000000000000000000000000000000000000000000000000000000000010000000000
00000000000000000000000000000000000000000000000000000000000000000000000000000000010000000000
00000000000000000000000000000000000000000000000000000000000000000000000000000000010000000000
00000000000000000000000000000000000000000000000000000000000000000000000000000000010000000000
00000000000000000000000000000000000000000000000000000000000000000000000000000000010000000000
00000000000000000000000000000000000000000000000000000000000000000000000000000000010000000000
00000000000000000000000000000000000000000000000000000000000000000000000000000000010000000000
00000000000000000000000000000000000000000000000000000000000000000000000000000000010000000000
00000000000000000000000000000000000000000000000000000000000000000000000000000000010000000000
00000000000000000000000000000000000000000000000000000000000000000000000000000000010000000000
00000000000000000000000000000000000000000000000000000000000000000000000000000000010000000000
00000000000000000000000000000000000000000000000000000000000000000000000000000000010000000000
00000000000000000000000000000000000000000000000000000000000000000000000000000000010000000000
00000000000000000000000000000000000000000000000000000000000000000000000000000000010000000000
00000000000000000000000000000000000000000000000000000000000000000000000000000000010000000000
00000000000000000000000000000000000000000000000000000000000000000000000000000000010000000000
00000000000000000000000000000000000000000000000000000000000000000000000000000000010000000000
00000000000000000000000000000000000000000000000000000000000000000000000000000000010000000000
00000000000000000000000000000000000000000000000000000000000000000000000000000000010000000000
00000000000000000000000000000000000000000000000000000000000000000000000000000000010000000000
00000000000000000000000000000000000000000000000000000000000000000000000000000000010000000000
00000000000000000000000000000000000000000000000000000000000000000000000000000000010000000000
00000000000000000000000000000000000000000000000000000000000000000000000000000000010000000000
00000000000000000000000000000000000000000000000000000000000000000000000000000000010000000000
00000000000000000000000000000000000000000000000000000000000000000000000000000000010000000000
00000000000000000000000000000000000000000000000000000000000000000000000000000000010000000000
00000000000000000000000000000000000000000000000000000000000000000000000000000000010000000000
00000000000000000000000000000000000000000000000000000000000000000000000000000000010000000000
00000000000000000000000000000000000000000000000000000000000000000000000000000000010000000000
00000000000000000000000000000000000000000000000000000000000000000000000000000000010000000000
00000000000000000000000000000000000000000000000000000000000000000000000000000000010000000000
00000000000000000000000000000000000000000000000000000000000000000000000000000000010000000000
00000000000000000000000000000000000000000000000000000000000000000000000000000000010000000000
00000000000000000000000000000000000000000000000000000000000000000000000000000000010000000000
00000000000000000000000000000000000000000000000000000000000000000000000000000000010000000000
00000000000000000000000000000000000000000000000000000000000000000000000000000000010000000000
00000000000000000000000000000000000000000000000000000000000000000000000000000000010000000000
00000000000000000000000000000000000000000000000000000000000000000000000000000000010000000000
00000000000000000000000000000000000000000000000000000000000000000000000000000000010000000000
00000000000000000000000000000000000000000000000000000000000000000000000000000000010000000000
00000000000000000000000000000000000000000000000000000000000000000000000000000000010000000000
00000000000000000000000000000000000000000000000000000000000000000000000000000000010000000000
00000000000000000000000000000000000000000000000000000000000000000000000000000000010000000000
00000000000000000000000000000000000000000000000000000000000000000000000000000000010000000000
00000000000000000000000000000000000000000000000000000000000000000000000000000000010000000000
00000000000000000000000000000000000000000000000000000000000000000000000000000000010000000000
00000000000000000000000000000000000000000000000000000000000000000000000000000000010000000000
00000000000000000000000000000000000000000000000000000000000000000000000000000000010000000000
00000000000000000000000000000000000000000000000000000000000000000000000000000000010000000000
00000000000000000000000000000000000000000000000000000000000000000000000000000000010000000000
00000000000000000000000000000000000000000000000000000000000000000000000000000000010000000000
00000000000000000000000000000000000000000000000000000000000000000000000000000000010000000000
00000000000000000000000000000000000000000000000000000000000000000000000000000000010000000000
00000000000000000000000000000000000000000000000000000000000000000000000000000000010000000000
00000000000000000000000000000000000000000000000000000000000000000000000000000000010000000000
00000000000000000000000000000000000000000000000000000000000000000000000000000000010000000000
00000000000000000000000000000000000000000000000000000000000000000000000000000000010000000000
00000000000000000000000000000000000000000000000000000000000000000000000000000000010000000000
00000000000000000000000000000000000000000000000000000000000000000000000000000000010000000000
00000000000000000000000000000000000000000000000000000000000000000000000000000000010000000000
00000000000000000000000000000000000000000000000000000000000000000000000000000000010000000000
00000000000000000000000000000000000000000000000000000000000000000000000000000000010000000000
00000000000000000000000000000000000000000000000000000000000000000000000000000000010000000000
00000000000000000000000000000000000000000000000000000000000000000000000000000000010000000000
00000000000000000000000000000000000000000000000000000000000000000000000000000000010000000000
00000000000000000000000000000000000000000000000000000000000000000000000000000000010000000000
00000000000000000000000000000000000000000000000000000000000000000000000000000000010000000000
00000000000000000000000000000000000000000000000000000000000000000000000000000000010000000000
00000000000000000000000000000000000000000000000000000000000000000000000000000000010000000000
00000000000000000000000000000000000000000000000000000000000000000000000000000000010000000000
00000000000000000000000000000000000000000000000000000000000000000000000000000000010000000000
00000000000000000000000000000000000000000000000000000000000000000000000000000000010000000000
00000000000000000000000000000000000000000000000000000000000000000000000000000000010000000000
00000000000000000000000000000000000000000000000000000000000000000000000000000000010000000000
00000000000000000000000000000000000000000000000000000000000000000000000000000000010000000000
00000000000000000000000000000000000000000000000000000000000000000000000000000000010000000000
00000000000000000000000000000000000000000000000000000000000000000000000000000000010000000000
00000000000000000000000000000000000000000000000000000000000000000000000000000000010000000000
00000000000000000000000000000000000000000000000000000000000000000000000000000000010000000000
00000000000000000000000000000000000000000000000000000000000000000000000000000000010000000000
00000000000000000000000000000000000000000000000000000000000000000000000000000000010000000000
00000000000000000000000000000000000000000000000000000000000000000000000000000000010000000000
00000000000000000000000000000000000000000000000000000000000000000000000000000000010000000000
00000000000000000000000000000000000000000000000000000000000000000000000000000000010000000000
00000000000000000000000000000000000000000000000000000000000000000000000000000000010000000000
00000000000000000000000000000000000000000000000000000000000000000000000000000000010000000000
00000000000000000000000000000000000000000000000000000000000000000000000000000000010000000000
00000000000000000000000000000000000000000000000000000000000000000000000000000000010000000000
00000000000000000000000000000000000000000000000000000000000000000000000000000000010000000000
00000000000000000000000000000000000000000000000000000000000000000000000000000000010000000000
00000000000000000000000000000000000000000000000000000000000000000000000000000000010000000000
00000000000000000000000000000000000000000000000000000000000000000000000000000000010000000000
00000000000000000000000000000000000000000000000000000000000000000000000000000000010000000000
00000000000000000000000000000000000000000000000000000000000000000000000000000000010000000000
00000000000000000000000000000000000000000000000000000000000000000000000000000000010000000000
00000000000000000000000000000000000000000000000000000000000000000000000000000000010000000000
00000000000000000000000000000000000000000000000000000000000000000000000000000000010000000000
00000000000000000000000000000000000000000000000000000000000000000000000000000000010000000000
00000000000000000000000000000000000000000000000000000000000000000000000000000000010000000000
00000000000000000000000000000000000000000000000000000000000000000000000000000000010000000000
00000000000000000000000000000000000000000000000000000000000000000000000000000000010000000000
00000000000000000000000000000000000000000000000000000000000000000000000000000000010000000000
00000000000000000000000000000000000000000000000000000000000000000000000000000000010000000000
00000000000000000000000000000000000000000000000000000000000000000000000000000000010000000000
00000000000000000000000000000000000000000000000000000000000000000000000000000000010000000000
00000000000000000000000000000000000000000000000000000000000000000000000000000000010000000000
00000000000000000000000000000000000000000000000000000000000000000000000000000000010000000000
00000000000000000000000000000000000000000000000000000000000000000000000000000000010000000000
00000000000000000000000000000000000000000000000000000000000000000000000000000000010000000000
00000000000000000000000000000000000000000000000000000000000000000000000000000000010000000000
00000000000000000000000000000000000000000000000000000000000000000000000000000000010000000000
00000000000000000000000000000000000000000000000000000000000000000000000000000000010000000000
00000000000000000000000000000000000000000000000000000000000000000000000000000000010000000000
00000000000000000000000000000000000000000000000000000000000000000000000000000000010000000000
00000000000000000000000000000000000000000000000000000000000000000000000000000000010000000000
00000000000000000000000000000000000000000000000000000000000000000000000000000000010000000000
00000000000000000000000000000000000000000000000000000000000000000000000000000000010000000000
00000000000000000000000000000000000000000000000000000000000000000000000000000000010000000000
00000000000000000000000000000000000000000000000000000000000000000000000000000000010000000000
00000000000000000000000000000000000000000000000000000000000000000000000000000000010000000000
00000000000000000000000000000000000000000000000000000000000000000000000000000000010000000000
00000000000000000000000000000000000000000000000000000000000000000000000000000000010000000000
00000000000000000000000000000000000000000000000000000000000000000000000000000000010000000000
00000000000000000000000000000000000000000000000000000000000000000000000000000000010000000000
00000000000000000000000000000000000000000000000000000000000000000000000000000000010000000000
00000000000000000000000000000000000000000000000000000000000000000000000000000000010000000000
00000000000000000000000000000000000000000000000000000000000000000000000000000000010000000000
00000000000000000000000000000000000000000000000000000000000000000000000000000000010000000000
00000000000000000000000000000000000000000000000000000000000000000000000000000000010000000000
00000000000000000000000000000000000000000000000000000000000000000000000000000000010000000000
00000000000000000000000000000000000000000000000000000000000000000000000000000000010000000000
00000000000000000000000000000000000000000000000000000000000000000000000000000000010000000000
00000000000000000000000000000000000000000000000000000000000000000000000000000000010000000000
00000000000000000000000000000000000000000000000000000000000000000000000000000000010000000000
00000000000000000000000000000000000000000000000000000000000000000000000000000000010000000000
00000000000000000000000000000000000000000000000000000000000000000000000000000000010000000000
00000000000000000000000000000000000000000000000000000000000000000000000000000000010000000000
00000000000000000000000000000000000000000000000000000000000000000000000000000000010000000000
00000000000000000000000000000000000000000000000000000000000000000000000000000000010000000000
00000000000000000000000000000000000000000000000000000000000000000000000000000000010000000000
00000000000000000000000000000000000000000000000000000000000000000000000000000000010000000000
00000000000000000000000000000000000000000000000000000000000000000000000000000000010000000000
00000000000000000000000000000000000000000000000000000000000000000000000000000000010000000000
00000000000000000000000000000000000000000000000000000000000000000000000000000000010000000000
00000000000000000000000000000000000000000000000000000000000000000000000000000000010000000000
00000000000000000000000000000000000000000000000000000000000000000000000000000000010000000000
00000000000000000000000000000000000000000000000000000000000000000000000000000000010000000000
00000000000000000000000000000000000000000000000000000000000000000000000000000000010000000000
00000000000000000000000000000000000000000000000000000000000000000000000000000000010000000000
00000000000000000000000000000000000000000000000000000000000000000000000000000000010000000000
00000000000000000000000000000000000000000000000000000000000000000000000000000000010000000000
00000000000000000000000000000000000000000000000000000000000000000000000000000000010000000000
00000000000000000000000000000000000000000000000000000000000000000000000000000000010000000000
00000000000000000000000000000000000000000000000000000000000000000000000000000000010000000000
00000000000000000000000000000000000000000000000000000000000000000000000000000000010000000000
00000000000000000000000000000000000000000000000000000000000000000000000000000000010000000000
00000000000000000000000000000000000000000000000000000000000000000000000000000000010000000000
00000000000000000000000000000000000000000000000000000000000000000000000000000000010000000000
00000000000000000000000000000000000000000000000000000000000000000000000000000000010000000000
00000000000000000000000000000000000000000000000000000000000000000000000000000000010000000000
00000000000000000000000000000000000000000000000000000000000000000000000000000000010000000000
00000000000000000000000000000000000000000000000000000000000000000000000000000000010000000000
00000000000000000000000000000000000000000000000000000000000000000000000000000000010000000000
00000000000000000000000000000000000000000000000000000000000000000000000000000000010000000000
00000000000000000000000000000000000000000000000000000000000000000000000000000000010000000000
00000000000000000000000000000000000000000000000000000000000000000000000000000000010000000000
00000000000000000000000000000000000000000000000000000000000000000000000000000000010000000000
00000000000000000000000000000000000000000000000000000000000000000000000000000000010000000000
00000000000000000000000000000000000000000000000000000000000000000000000000000000010000000000
00000000000000000000000000000000000000000000000000000000000000000000000000000000010000000000
00000000000000000000000000000000000000000000000000000000000000000000000000000000010000000000
00000000000000000000000000000000000000000000000000000000000000000000000000000000010000000000
00000000000000000000000000000000000000000000000000000000000000000000000000000000010000000000
00000000000000000000000000000000000000000000000000000000000000000000000000000000010000000000
00000000000000000000000000000000000000000000000000000000000000000000000000000000010000000000
00000000000000000000000000000000000000000000000000000000000000000000000000000000010000000000
00000000000000000000000000000000000000000000000000000000000000000000000000000000010000000000
00000000000000000000000000000000000000000000000000000000000000000000000000000000010000000000
00000000000000000000000000000000000000000000000000000000000000000000000000000000010000000000
00000000000000000000000000000000000000000000000000000000000000000000000000000000010000000000
00000000000000000000000000000000000000000000000000000000000000000000000000000000010000000000
00000000000000000000000000000000000000000000000000000000000000000000000000000000010000000000
00000000000000000000000000000000000000000000000000000000000000000000000000000000010000000000
00000000000000000000000000000000000000000000000000000000000000000000000000000000010000000000
00000000000000000000000000000000000000000000000000000000000000000000000000000000010000000000
00000000000000000000000000000000000000000000000000000000000000000000000000000000010000000000
00000000000000000000000000000000000000000000000000000000000000000000000000000000010000000000
00000000000000000000000000000000000000000000000000000000000000000000000000000000010000000000
00000000000000000000000000000000000000000000000000000000000000000000000000000000010000000000
00000000000000000000000000000000000000000000000000000000000000000000000000000000010000000000
00000000000000000000000000000000000000000000000000000000000000000000000000000000010000000000
00000000000000000000000000000000000000000000000000000000000000000000000000000000010000000000
