a8aaa68eaaa208fea5a48a51ca5a9d05c6211548832bd4277605a8acedf88c490000003ff00ffc00000000201000
5aaad454caaa01c5aa8875daaa15c2a81553da9557ed555572b545d4aaf4d6370000003ff00ffc00000000201010
4a292570823aa75a65a8d92e52a266bb6aa1aab5abd6ab5a877abaa80b4b7bcc0000003ff00ffc00000000201020
4cc92555569295456929555292942b11291bb55241c75124b9394489adf601210000003ff00ffffe000000201030
4a6aaa75da8aa84aa65adaa50d559ba77549d95546915d955c056ad4f58ae1b40000003ff00ffc02000000201040
2420a286d80b359504b565b54a567d61954352897a2aaa52a58aaaa9b813b0be0000003ff00ffc00000000201050
d4116abda01eaf7acbcaa82aaaaa9eaaaaaccaaaabb2ae9a21cab6bab5aff35b0000003ff00ffc00000000201060
b4aaa14aeaa8b0a6aa580a52864a83454d31343557575557733545564f0c1faa0000003ff00ffc00000000201070
5abaad81abd59c4c9555b293eb563d2aa7cb8aaaa820aaa88feaaaa9ccf079550000003ff00ffffe000000201080
27556ad2a506b5014ccd57aaa12132bc52970aafa81eaa9a8f1aaa28cf76a14d0000003ff00ffffe000000201090
ab035aba2d44a9bab72a4a786aad9261a94cb54ad6f955255b854954449fd7560000003ff00ffffe0000002010a0
a519494a5896b49d21695546569445a53148494850c895b1ac5a2aae9088eaec0000003ff00ffc020000002010b0
26551aaaba8aa032aaa8554aa9550babd5049da156f157d57ad54557aff4d8cf0000003ff00ffc000000002010c0
b0a84a0a6a90b09529ab663016a485454a767436b677404956654557f84104620000003ff00ffffe0000002010d0
ba530aaabb3caadaa5aab12eeb55caad75c7ca8d7896ab9884dabaa991c4ff200000003ff00ffc000000002010e0
a55428a2455052b555512f15542ad7756afb6576a99e962aa1daa22b89ed24b30000003ff00ffc000000002010f0
7d4ba555949bd44e6c3550a2891d45caeaa48aaaaa16aaaaabaaaaa9e5c839cc0000003ff00ffc00000000201100
e8a5a8162a4a0192b0a415684ac51854a513736b34fe76b71c656955090184550000003ff00ffffe000000201110
aa8aab529ea645907715125555557b555557755547df555559654cd26c3142e50000003ff00ffffe000000201120
4639295418a2940209355659515518b51558e95074f951d5b39d48d5a41e25d10000003ff00ffc00000000201130
395a95a39529283a36bcc82f6bd1eef4a1cdcafaab04aaa8a1fabaa9e56368a40000003ff00ffc00000000201140
355680b255288b1402897735299145b6915a0a0a2816a00aa28aaaa8ab32bb360000003ff00ffc00000000201150
aa22979a9ae52f6ba251ba49752bb6b35ec24a357c442b50e462bea54f0ee05e0000003ff00ffc00000000201160
5045291d215a94c7caaa5e30aad53b32a233f72a505952b55fc5495612870f4c0000003ff00ffc00000000201170
ab85554a85557abb550fa83b7baaaef6a2a4e8ae2812aaaa07caaa2a64c0ae010000003ff00ffffe000000201180
b556a82f555b52a555b0276556ba33d55250e55562aab54a90d9550191f5075b0000003ff00ffc00000000201190
7884a697a80a69e3d6a480f56a4dea52b6b9fc28c68a52d7d42148da6aa41b260000003ff00ffffe0000002011a0
b722a40b18a14f099154628d5162059c574c92a579c02b516a12d65444ad4f560000003ff00ffffe0000002011b0
bba9296a2292e3bf2da93ae852d58690adc2bc0af7e35cb5592568d5158c105b0000003ff00ffffe0000002011c0
45592855e15b141510950794aa8a7d4aa2bb012eab76eaaaa23ba8ab9f40962b0000003ff00ffc000000002011d0
7aa5a557294ae1e280a54be04a55aa56a4a52e2b26fb52951fb568c16aaf8a190000003ff00ffffe0000002011e0
d15533a86feb4aa5eab5afd8ab8aad4a72b61524a4b9552770955156b85a129d0000003ff00ffc000000002011f0
4baab74daaaa16faa9cae917ca1e9d6476a2d549574d54b5535544d4ba375a270000003ff00ffc02000000201200
b51552abd109ea354a16af9aabaa95aaaabb88eaab38aa9aa0caaab80b4038470000003ff00ffc00000000201210
ba296caa8692c28e2d29512296d5bcab55c92ab56389db54cc6aaaa8740fbc020000003ff00ffffe000000201220
e482a106e3285c8506d002152921431a9b1cf5a054a762575ed544577bcc1f620000003ff00ffc00000000201230
a8924bcad3aca1b74b4a4b9574adaa510a543542a73fd42c2ae94085d0180f130000003ff00ffffe000000201240
0aad51540a942502aac1561aac055aaa91591aab34dd224700e755554c793fc90000003ff00ffffe000000201250
ba82916399a50f7af55af54bb52d1aba5ac6aa947e392b4445c4bea659be7ad40000003ff00ffffe000000201260
36a90c165eaabdf12a9426da5506dcd1554b8495547d1a5573d35cd5d1e2f2780000003ff00ffc00000000201270
5aacd57daab5845aaae5512aaa296c8aaa890aaaa999aaaa804aaaa82a8866930000003ff00ffc00000000201280
a4aa928a5aa3a0b545222c5548ea99542c62b550d7ef55655d054d54fef8509d0000003ff00ffc00000000201290
f8a292afd0686ba712968a13a96bdb6b42b67435aa16ca0e9f5585acf12884400000003ff00ffffe0000002012a0
4850b55dcc2a955006a542b4cc578159554a8695548c2ad571c29a34ec9a55580000003ff00ffc020000002012b0
eb9a4b5b14b0a1a16b4b48b694acae656ad72842a32fd42cac7dc2ab485f3d390000003ff00ffffe0000002012c0
b80a4abacca427152a4657d2a1757eaa955faa8d545661550b054555989797a40000003ff00ffffe0000002012d0
4aa52aa89f5aaadaa56aa0aafda496a975072aac591aaa90cbcabaab25a9fb2a0000003ff00ffffe0000002012e0
12ab54b22aa5029aaa8066aaa4a5baaa01592a9557ff5155530555561a3f8de00000003ff00ffc000000002012f0
f972d2d4f2ac29ada2628870a5aabf2bda9eea352fa6ec0ebfb584873fe39cdf0000003ff00ffc00000000201300
c5aaa229daaaad0554408655545e89556558554156a155557c055d55634a53d50000003ff00ffc00000000201310
9a57aaa8a152abeacd4aa82b5aaefaad54abcadd7f3c8a9756863aa9a55df7020000003ff00ffffe000000201320
22a425329aab5fc1aa1037ca15011aa55559055555f1555553d55c5499f7de780000003ff00ffffe000000201330
c575d7a9eb07c67deaaafeaaaabba52aaab38aeaab1aa2aa807aaaa9486be6360000003ff00ffc00000000201340
b5014aaa56151abd21554b58b40af14b702544aeaa6a86aa860a9928d912b04f0000003ff00ffffe000000201350
dd549234b52b256d5292d4b6a96c456a92920aada03eea0a80bb8aaa2ecf19380000003ff00ffc00000000201360
3282b53218a50982ad4527ea50450a95455a8d54d5cd55457e355d579f875c9d0000003ff00ffffe000000201370
ab574ae91500a3ba5d5aab0f3564f2ab54ed4aae5b82abb86eeab2a8cf2ae7660000003ff00ffffe000000201380
b7545baa15450bb0ca5626022522e2bd5869a2955ad1a54a62929f06a00573fc0000003ff00ffc00000000201390
2aa94aab9a90aa4aae00508aa45016aa90cc8aa87986aa98818ab2a8814bbcf90000003ff00ffffe0000002013a0
54a196644b4d624da956d72aa9482c8a96710aa938f4afda844ab68a1420f7dd0000003ff00ffc000000002013b0
dd324b64d4acb47d5a5ac812a4b4e46acaa88cb6ab9eea5a808aa2ab29bc38f70000003ff00ffffe0000002013c0
b55292bb55256aa55112adf548aaab559a997554ab8a554a90f54507e01794b70000003ff00ffffe0000002013d0
baa9086b1ada0baa2d932bea5552f28555607c9556c15d5573755557592207b40000003ff00ffffe0000002013e0
a34d92aa12516ae8a494286b494aa394962bd4ad5a1d129204469f5085bee94b0000003ff00ffc000000002013f0
00000000000000000000000000000000000000000000000000000000000000000000000000000000010000000000
00000000000000000000000000000000000000000000000000000000000000000000000000000000010000000000
00000000000000000000000000000000000000000000000000000000000000000000000000000000010000000000
00000000000000000000000000000000000000000000000000000000000000000000000000000000010000000000
00000000000000000000000000000000000000000000000000000000000000000000000000000000010000000000
00000000000000000000000000000000000000000000000000000000000000000000000000000000010000000000
00000000000000000000000000000000000000000000000000000000000000000000000000000000010000000000
00000000000000000000000000000000000000000000000000000000000000000000000000000000010000000000
00000000000000000000000000000000000000000000000000000000000000000000000000000000010000000000
00000000000000000000000000000000000000000000000000000000000000000000000000000000010000000000
00000000000000000000000000000000000000000000000000000000000000000000000000000000010000000000
00000000000000000000000000000000000000000000000000000000000000000000000000000000010000000000
00000000000000000000000000000000000000000000000000000000000000000000000000000000010000000000
00000000000000000000000000000000000000000000000000000000000000000000000000000000010000000000
00000000000000000000000000000000000000000000000000000000000000000000000000000000010000000000
00000000000000000000000000000000000000000000000000000000000000000000000000000000010000000000
00000000000000000000000000000000000000000000000000000000000000000000000000000000010000000000
00000000000000000000000000000000000000000000000000000000000000000000000000000000010000000000
00000000000000000000000000000000000000000000000000000000000000000000000000000000010000000000
00000000000000000000000000000000000000000000000000000000000000000000000000000000010000000000
00000000000000000000000000000000000000000000000000000000000000000000000000000000010000000000
00000000000000000000000000000000000000000000000000000000000000000000000000000000010000000000
00000000000000000000000000000000000000000000000000000000000000000000000000000000010000000000
00000000000000000000000000000000000000000000000000000000000000000000000000000000010000000000
00000000000000000000000000000000000000000000000000000000000000000000000000000000010000000000
00000000000000000000000000000000000000000000000000000000000000000000000000000000010000000000
00000000000000000000000000000000000000000000000000000000000000000000000000000000010000000000
00000000000000000000000000000000000000000000000000000000000000000000000000000000010000000000
00000000000000000000000000000000000000000000000000000000000000000000000000000000010000000000
00000000000000000000000000000000000000000000000000000000000000000000000000000000010000000000
00000000000000000000000000000000000000000000000000000000000000000000000000000000010000000000
00000000000000000000000000000000000000000000000000000000000000000000000000000000010000000000
00000000000000000000000000000000000000000000000000000000000000000000000000000000010000000000
00000000000000000000000000000000000000000000000000000000000000000000000000000000010000000000
00000000000000000000000000000000000000000000000000000000000000000000000000000000010000000000
00000000000000000000000000000000000000000000000000000000000000000000000000000000010000000000
00000000000000000000000000000000000000000000000000000000000000000000000000000000010000000000
00000000000000000000000000000000000000000000000000000000000000000000000000000000010000000000
00000000000000000000000000000000000000000000000000000000000000000000000000000000010000000000
00000000000000000000000000000000000000000000000000000000000000000000000000000000010000000000
00000000000000000000000000000000000000000000000000000000000000000000000000000000010000000000
00000000000000000000000000000000000000000000000000000000000000000000000000000000010000000000
00000000000000000000000000000000000000000000000000000000000000000000000000000000010000000000
00000000000000000000000000000000000000000000000000000000000000000000000000000000010000000000
00000000000000000000000000000000000000000000000000000000000000000000000000000000010000000000
00000000000000000000000000000000000000000000000000000000000000000000000000000000010000000000
00000000000000000000000000000000000000000000000000000000000000000000000000000000010000000000
00000000000000000000000000000000000000000000000000000000000000000000000000000000010000000000
00000000000000000000000000000000000000000000000000000000000000000000000000000000010000000000
00000000000000000000000000000000000000000000000000000000000000000000000000000000010000000000
00000000000000000000000000000000000000000000000000000000000000000000000000000000010000000000
00000000000000000000000000000000000000000000000000000000000000000000000000000000010000000000
00000000000000000000000000000000000000000000000000000000000000000000000000000000010000000000
00000000000000000000000000000000000000000000000000000000000000000000000000000000010000000000
00000000000000000000000000000000000000000000000000000000000000000000000000000000010000000000
00000000000000000000000000000000000000000000000000000000000000000000000000000000010000000000
00000000000000000000000000000000000000000000000000000000000000000000000000000000010000000000
00000000000000000000000000000000000000000000000000000000000000000000000000000000010000000000
00000000000000000000000000000000000000000000000000000000000000000000000000000000010000000000
00000000000000000000000000000000000000000000000000000000000000000000000000000000010000000000
00000000000000000000000000000000000000000000000000000000000000000000000000000000010000000000
00000000000000000000000000000000000000000000000000000000000000000000000000000000010000000000
00000000000000000000000000000000000000000000000000000000000000000000000000000000010000000000
00000000000000000000000000000000000000000000000000000000000000000000000000000000010000000000
00000000000000000000000000000000000000000000000000000000000000000000000000000000010000000000
00000000000000000000000000000000000000000000000000000000000000000000000000000000010000000000
00000000000000000000000000000000000000000000000000000000000000000000000000000000010000000000
00000000000000000000000000000000000000000000000000000000000000000000000000000000010000000000
00000000000000000000000000000000000000000000000000000000000000000000000000000000010000000000
00000000000000000000000000000000000000000000000000000000000000000000000000000000010000000000
00000000000000000000000000000000000000000000000000000000000000000000000000000000010000000000
00000000000000000000000000000000000000000000000000000000000000000000000000000000010000000000
00000000000000000000000000000000000000000000000000000000000000000000000000000000010000000000
00000000000000000000000000000000000000000000000000000000000000000000000000000000010000000000
00000000000000000000000000000000000000000000000000000000000000000000000000000000010000000000
00000000000000000000000000000000000000000000000000000000000000000000000000000000010000000000
00000000000000000000000000000000000000000000000000000000000000000000000000000000010000000000
00000000000000000000000000000000000000000000000000000000000000000000000000000000010000000000
00000000000000000000000000000000000000000000000000000000000000000000000000000000010000000000
00000000000000000000000000000000000000000000000000000000000000000000000000000000010000000000
00000000000000000000000000000000000000000000000000000000000000000000000000000000010000000000
00000000000000000000000000000000000000000000000000000000000000000000000000000000010000000000
00000000000000000000000000000000000000000000000000000000000000000000000000000000010000000000
00000000000000000000000000000000000000000000000000000000000000000000000000000000010000000000
00000000000000000000000000000000000000000000000000000000000000000000000000000000010000000000
00000000000000000000000000000000000000000000000000000000000000000000000000000000010000000000
00000000000000000000000000000000000000000000000000000000000000000000000000000000010000000000
00000000000000000000000000000000000000000000000000000000000000000000000000000000010000000000
00000000000000000000000000000000000000000000000000000000000000000000000000000000010000000000
00000000000000000000000000000000000000000000000000000000000000000000000000000000010000000000
00000000000000000000000000000000000000000000000000000000000000000000000000000000010000000000
00000000000000000000000000000000000000000000000000000000000000000000000000000000010000000000
00000000000000000000000000000000000000000000000000000000000000000000000000000000010000000000
00000000000000000000000000000000000000000000000000000000000000000000000000000000010000000000
00000000000000000000000000000000000000000000000000000000000000000000000000000000010000000000
00000000000000000000000000000000000000000000000000000000000000000000000000000000010000000000
00000000000000000000000000000000000000000000000000000000000000000000000000000000010000000000
00000000000000000000000000000000000000000000000000000000000000000000000000000000010000000000
00000000000000000000000000000000000000000000000000000000000000000000000000000000010000000000
00000000000000000000000000000000000000000000000000000000000000000000000000000000010000000000
00000000000000000000000000000000000000000000000000000000000000000000000000000000010000000000
00000000000000000000000000000000000000000000000000000000000000000000000000000000010000000000
00000000000000000000000000000000000000000000000000000000000000000000000000000000010000000000
00000000000000000000000000000000000000000000000000000000000000000000000000000000010000000000
00000000000000000000000000000000000000000000000000000000000000000000000000000000010000000000
00000000000000000000000000000000000000000000000000000000000000000000000000000000010000000000
00000000000000000000000000000000000000000000000000000000000000000000000000000000010000000000
00000000000000000000000000000000000000000000000000000000000000000000000000000000010000000000
00000000000000000000000000000000000000000000000000000000000000000000000000000000010000000000
00000000000000000000000000000000000000000000000000000000000000000000000000000000010000000000
00000000000000000000000000000000000000000000000000000000000000000000000000000000010000000000
00000000000000000000000000000000000000000000000000000000000000000000000000000000010000000000
00000000000000000000000000000000000000000000000000000000000000000000000000000000010000000000
00000000000000000000000000000000000000000000000000000000000000000000000000000000010000000000
00000000000000000000000000000000000000000000000000000000000000000000000000000000010000000000
00000000000000000000000000000000000000000000000000000000000000000000000000000000010000000000
00000000000000000000000000000000000000000000000000000000000000000000000000000000010000000000
00000000000000000000000000000000000000000000000000000000000000000000000000000000010000000000
00000000000000000000000000000000000000000000000000000000000000000000000000000000010000000000
00000000000000000000000000000000000000000000000000000000000000000000000000000000010000000000
00000000000000000000000000000000000000000000000000000000000000000000000000000000010000000000
00000000000000000000000000000000000000000000000000000000000000000000000000000000010000000000
00000000000000000000000000000000000000000000000000000000000000000000000000000000010000000000
00000000000000000000000000000000000000000000000000000000000000000000000000000000010000000000
00000000000000000000000000000000000000000000000000000000000000000000000000000000010000000000
00000000000000000000000000000000000000000000000000000000000000000000000000000000010000000000
00000000000000000000000000000000000000000000000000000000000000000000000000000000010000000000
00000000000000000000000000000000000000000000000000000000000000000000000000000000010000000000
00000000000000000000000000000000000000000000000000000000000000000000000000000000010000000000
00000000000000000000000000000000000000000000000000000000000000000000000000000000010000000000
00000000000000000000000000000000000000000000000000000000000000000000000000000000010000000000
00000000000000000000000000000000000000000000000000000000000000000000000000000000010000000000
00000000000000000000000000000000000000000000000000000000000000000000000000000000010000000000
00000000000000000000000000000000000000000000000000000000000000000000000000000000010000000000
00000000000000000000000000000000000000000000000000000000000000000000000000000000010000000000
00000000000000000000000000000000000000000000000000000000000000000000000000000000010000000000
00000000000000000000000000000000000000000000000000000000000000000000000000000000010000000000
00000000000000000000000000000000000000000000000000000000000000000000000000000000010000000000
00000000000000000000000000000000000000000000000000000000000000000000000000000000010000000000
00000000000000000000000000000000000000000000000000000000000000000000000000000000010000000000
00000000000000000000000000000000000000000000000000000000000000000000000000000000010000000000
00000000000000000000000000000000000000000000000000000000000000000000000000000000010000000000
00000000000000000000000000000000000000000000000000000000000000000000000000000000010000000000
00000000000000000000000000000000000000000000000000000000000000000000000000000000010000000000
00000000000000000000000000000000000000000000000000000000000000000000000000000000010000000000
00000000000000000000000000000000000000000000000000000000000000000000000000000000010000000000
00000000000000000000000000000000000000000000000000000000000000000000000000000000010000000000
00000000000000000000000000000000000000000000000000000000000000000000000000000000010000000000
00000000000000000000000000000000000000000000000000000000000000000000000000000000010000000000
00000000000000000000000000000000000000000000000000000000000000000000000000000000010000000000
00000000000000000000000000000000000000000000000000000000000000000000000000000000010000000000
00000000000000000000000000000000000000000000000000000000000000000000000000000000010000000000
00000000000000000000000000000000000000000000000000000000000000000000000000000000010000000000
00000000000000000000000000000000000000000000000000000000000000000000000000000000010000000000
00000000000000000000000000000000000000000000000000000000000000000000000000000000010000000000
00000000000000000000000000000000000000000000000000000000000000000000000000000000010000000000
00000000000000000000000000000000000000000000000000000000000000000000000000000000010000000000
00000000000000000000000000000000000000000000000000000000000000000000000000000000010000000000
00000000000000000000000000000000000000000000000000000000000000000000000000000000010000000000
00000000000000000000000000000000000000000000000000000000000000000000000000000000010000000000
00000000000000000000000000000000000000000000000000000000000000000000000000000000010000000000
00000000000000000000000000000000000000000000000000000000000000000000000000000000010000000000
00000000000000000000000000000000000000000000000000000000000000000000000000000000010000000000
00000000000000000000000000000000000000000000000000000000000000000000000000000000010000000000
00000000000000000000000000000000000000000000000000000000000000000000000000000000010000000000
00000000000000000000000000000000000000000000000000000000000000000000000000000000010000000000
00000000000000000000000000000000000000000000000000000000000000000000000000000000010000000000
00000000000000000000000000000000000000000000000000000000000000000000000000000000010000000000
00000000000000000000000000000000000000000000000000000000000000000000000000000000010000000000
00000000000000000000000000000000000000000000000000000000000000000000000000000000010000000000
00000000000000000000000000000000000000000000000000000000000000000000000000000000010000000000
00000000000000000000000000000000000000000000000000000000000000000000000000000000010000000000
00000000000000000000000000000000000000000000000000000000000000000000000000000000010000000000
00000000000000000000000000000000000000000000000000000000000000000000000000000000010000000000
00000000000000000000000000000000000000000000000000000000000000000000000000000000010000000000
00000000000000000000000000000000000000000000000000000000000000000000000000000000010000000000
00000000000000000000000000000000000000000000000000000000000000000000000000000000010000000000
00000000000000000000000000000000000000000000000000000000000000000000000000000000010000000000
00000000000000000000000000000000000000000000000000000000000000000000000000000000010000000000
00000000000000000000000000000000000000000000000000000000000000000000000000000000010000000000
00000000000000000000000000000000000000000000000000000000000000000000000000000000010000000000
00000000000000000000000000000000000000000000000000000000000000000000000000000000010000000000
00000000000000000000000000000000000000000000000000000000000000000000000000000000010000000000
00000000000000000000000000000000000000000000000000000000000000000000000000000000010000000000
00000000000000000000000000000000000000000000000000000000000000000000000000000000010000000000
00000000000000000000000000000000000000000000000000000000000000000000000000000000010000000000
00000000000000000000000000000000000000000000000000000000000000000000000000000000010000000000
00000000000000000000000000000000000000000000000000000000000000000000000000000000010000000000
00000000000000000000000000000000000000000000000000000000000000000000000000000000010000000000
00000000000000000000000000000000000000000000000000000000000000000000000000000000010000000000
00000000000000000000000000000000000000000000000000000000000000000000000000000000010000000000
00000000000000000000000000000000000000000000000000000000000000000000000000000000010000000000
